<pad>	0
<s>	0
</s>	0
<unk>	0
<0x00>	0
<0x01>	0
<0x02>	0
<0x03>	0
<0x04>	0
<0x05>	0
<0x06>	0
<0x07>	0
<0x08>	0
<0x09>	0
<0x0A>	0
<0x0B>	0
<0x0C>	0
<0x0D>	0
<0x0E>	0
<0x0F>	0
<0x10>	0
<0x11>	0
<0x12>	0
<0x13>	0
<0x14>	0
<0x15>	0
<0x16>	0
<0x17>	0
<0x18>	0
<0x19>	0
<0x1A>	0
<0x1B>	0
<0x1C>	0
<0x1D>	0
<0x1E>	0
<0x1F>	0
<0x20>	0
<0x21>	0
<0x22>	0
<0x23>	0
<0x24>	0
<0x25>	0
<0x26>	0
<0x27>	0
<0x28>	0
<0x29>	0
<0x2A>	0
<0x2B>	0
<0x2C>	0
<0x2D>	0
<0x2E>	0
<0x2F>	0
<0x30>	0
<0x31>	0
<0x32>	0
<0x33>	0
<0x34>	0
<0x35>	0
<0x36>	0
<0x37>	0
<0x38>	0
<0x39>	0
<0x3A>	0
<0x3B>	0
<0x3C>	0
<0x3D>	0
<0x3E>	0
<0x3F>	0
<0x40>	0
<0x41>	0
<0x42>	0
<0x43>	0
<0x44>	0
<0x45>	0
<0x46>	0
<0x47>	0
<0x48>	0
<0x49>	0
<0x4A>	0
<0x4B>	0
<0x4C>	0
<0x4D>	0
<0x4E>	0
<0x4F>	0
<0x50>	0
<0x51>	0
<0x52>	0
<0x53>	0
<0x54>	0
<0x55>	0
<0x56>	0
<0x57>	0
<0x58>	0
<0x59>	0
<0x5A>	0
<0x5B>	0
<0x5C>	0
<0x5D>	0
<0x5E>	0
<0x5F>	0
<0x60>	0
<0x61>	0
<0x62>	0
<0x63>	0
<0x64>	0
<0x65>	0
<0x66>	0
<0x67>	0
<0x68>	0
<0x69>	0
<0x6A>	0
<0x6B>	0
<0x6C>	0
<0x6D>	0
<0x6E>	0
<0x6F>	0
<0x70>	0
<0x71>	0
<0x72>	0
<0x73>	0
<0x74>	0
<0x75>	0
<0x76>	0
<0x77>	0
<0x78>	0
<0x79>	0
<0x7A>	0
<0x7B>	0
<0x7C>	0
<0x7D>	0
<0x7E>	0
<0x7F>	0
<0x80>	0
<0x81>	0
<0x82>	0
<0x83>	0
<0x84>	0
<0x85>	0
<0x86>	0
<0x87>	0
<0x88>	0
<0x89>	0
<0x8A>	0
<0x8B>	0
<0x8C>	0
<0x8D>	0
<0x8E>	0
<0x8F>	0
<0x90>	0
<0x91>	0
<0x92>	0
<0x93>	0
<0x94>	0
<0x95>	0
<0x96>	0
<0x97>	0
<0x98>	0
<0x99>	0
<0x9A>	0
<0x9B>	0
<0x9C>	0
<0x9D>	0
<0x9E>	0
<0x9F>	0
<0xA0>	0
<0xA1>	0
<0xA2>	0
<0xA3>	0
<0xA4>	0
<0xA5>	0
<0xA6>	0
<0xA7>	0
<0xA8>	0
<0xA9>	0
<0xAA>	0
<0xAB>	0
<0xAC>	0
<0xAD>	0
<0xAE>	0
<0xAF>	0
<0xB0>	0
<0xB1>	0
<0xB2>	0
<0xB3>	0
<0xB4>	0
<0xB5>	0
<0xB6>	0
<0xB7>	0
<0xB8>	0
<0xB9>	0
<0xBA>	0
<0xBB>	0
<0xBC>	0
<0xBD>	0
<0xBE>	0
<0xBF>	0
<0xC0>	0
<0xC1>	0
<0xC2>	0
<0xC3>	0
<0xC4>	0
<0xC5>	0
<0xC6>	0
<0xC7>	0
<0xC8>	0
<0xC9>	0
<0xCA>	0
<0xCB>	0
<0xCC>	0
<0xCD>	0
<0xCE>	0
<0xCF>	0
<0xD0>	0
<0xD1>	0
<0xD2>	0
<0xD3>	0
<0xD4>	0
<0xD5>	0
<0xD6>	0
<0xD7>	0
<0xD8>	0
<0xD9>	0
<0xDA>	0
<0xDB>	0
<0xDC>	0
<0xDD>	0
<0xDE>	0
<0xDF>	0
<0xE0>	0
<0xE1>	0
<0xE2>	0
<0xE3>	0
<0xE4>	0
<0xE5>	0
<0xE6>	0
<0xE7>	0
<0xE8>	0
<0xE9>	0
<0xEA>	0
<0xEB>	0
<0xEC>	0
<0xED>	0
<0xEE>	0
<0xEF>	0
<0xF0>	0
<0xF1>	0
<0xF2>	0
<0xF3>	0
<0xF4>	0
<0xF5>	0
<0xF6>	0
<0xF7>	0
<0xF8>	0
<0xF9>	0
<0xFA>	0
<0xFB>	0
<0xFC>	0
<0xFD>	0
<0xFE>	0
<0xFF>	0
可以	-0
▁t	-1
in	-2
▁a	-3
he	-4
一个	-5
on	-6
我们	-7
re	-8
er	-9
▁the	-10
需要	-11
▁s	-12
at	-13
en	-14
is	-15
or	-16
es	-17
an	-18
▁c	-19
问题	-20
al	-21
智能	-22
▁=	-23
使用	-24
▁p	-25
**	-26
it	-27
▁1	-28
▁\	-29
▁-	-30
▁f	-31
一些	-32
▁o	-33
ing	-34
▁w	-35
这个	-36
好的	-37
▁b	-38
le	-39
以下	-40
ar	-41
ou	-42
提供	-43
00	-44
可能	-45
进行	-46
▁d	-47
▁2	-48
ion	-49
▁m	-50
人工	-51
人工智能	-52
文章	-53
技术	-54
ic	-55
▁$	-56
▁in	-57
▁an	-58
是一	-59
学习	-60
如果	-61
▁of	-62
ed	-63
通过	-64
▁to	-65
自己	-66
什么	-67
这些	-68
数据	-69
om	-70
中的	-71
``	-72
▁n	-73
非常	-74
3.	-75
他们	-76
帮助	-77
▁|	-78
as	-79
ac	-80
信息	-81
1.	-82
根据	-83
生成	-84
重要	-85
发展	-86
▁is	-87
包括	-88
不同	-89
环境	-90
时间	-91
2.	-92
应用	-93
文本	-94
公司	-95
ent	-96
计算	-97
影响	-98
um	-99
例如	-100
st	-101
▁e	-102
因此	-103
▁and	-104
关于	-105
▁**	-106
它们	-107
▁T	-108
生活	-109
ro	-110
et	-111
选择	-112
▁l	-113
领域	-114
健康	-115
能够	-116
▁re	-117
人类	-118
小明	-119
工作	-120
▁A	-121
4.	-122
th	-123
方式	-124
te	-125
提高	-126
如何	-127
建议	-128
--	-129
应该	-130
是一个	-131
im	-132
ll	-133
其他	-134
▁h	-135
▁(	-136
▁S	-137
方面	-138
同时	-139
你的	-140
▁3	-141
自己的	-142
自然	-143
▁"	-144
▁y	-145
方法	-146
▁+	-147
未来	-148
ct	-149
人们	-150
ve	-151
因为	-152
更加	-153
没有	-154
句子	-155
20	-156
▁5	-157
id	-158
语言	-159
我们的	-160
个人	-161
：1.	-162
。2.	-163
喜欢	-164
▁th	-165
电影	-166
环保	-167
机器	-168
10	-169
保护	-170
产品	-171
▁g	-172
以及	-173
内容	-174
ow	-175
▁I	-176
系统	-177
描述	-178
。3.	-179
ot	-180
减少	-181
但是	-182
ut	-183
处理	-184
定的	-185
文化	-186
ce	-187
ig	-188
▁$$	-189
一篇	-190
社会	-191
ly	-192
am	-193
两个	-194
us	-195
▁C	-196
ation	-197
活动	-198
```	-199
分析	-200
ers	-201
ur	-202
更多	-203
通常	-204
之间	-205
世界	-206
主要	-207
解决	-208
服务	-209
已经	-210
数字	-211
新的	-212
ol	-213
qu	-214
到了	-215
一下	-216
研究	-217
情况	-218
是一种	-219
了解	-220
安全	-221
保持	-222
之一	-223
ul	-224
或者	-225
医疗	-226
if	-227
设计	-228
un	-229
▁you	-230
主题	-231
您的	-232
用户	-233
成为	-234
▁for	-235
许多	-236
▁4	-237
大的	-238
##	-239
那么	-240
不同的	-241
身体	-242
具体	-243
我的	-244
科技	-245
过程	-246
实现	-247
5.	-248
分类	-249
城市	-250
能力	-251
我们可以	-252
开始	-253
所有	-254
一种	-255
此外	-256
对于	-257
注意	-258
回答	-259
▁\(	-260
yth	-261
对话	-262
认为	-263
故事	-264
关键	-265
给我	-266
音乐	-267
中国	-268
。4.	-269
考虑	-270
的文章	-271
动物	-272
这种	-273
具有	-274
ython	-275
现在	-276
一段	-277
变化	-278
是否	-279
市场	-280
运动	-281
结果	-282
的人	-283
确保	-284
ir	-285
▁st	-286
然后	-287
ay	-288
ge	-289
情感	-290
带来	-291
程序	-292
导致	-293
不断	-294
其中	-295
当然	-296
用于	-297
地球	-298
ist	-299
ad	-300
游戏	-301
理解	-302
以下是	-303
各种	-304
首先	-305
iv	-306
每个	-307
重要的	-308
任务	-309
朋友	-310
人的	-311
▁B	-312
全球	-313
il	-314
ate	-315
提取	-316
▁W	-317
可能会	-318
AI	-319
管理	-320
代码	-321
▁P	-322
▁The	-323
ith	-324
所以	-325
比如	-326
se	-327
函数	-328
很多	-329
相关	-330
质量	-331
写一篇	-332
▁在	-333
历史	-334
更好	-335
计划	-336
翻译	-337
▁con	-338
希望	-339
增加	-340
▁6	-341
适合	-342
完成	-343
科学	-344
需求	-345
发现	-346
▁v	-347
得到	-348
最后	-349
rac	-350
作为	-351
一起	-352
ec	-353
int	-354
xt	-355
之间的	-356
产生	-357
医生	-358
这样	-359
表达	-360
教育	-361
▁给	-362
▁as	-363
支持	-364
上的	-365
关系	-366
的影响	-367
▁pro	-368
▁are	-369
存在	-370
目标	-371
制作	-372
我想	-373
等等	-374
可以帮助	-375
的是	-376
计算机	-377
▁请	-378
更好地	-379
ke	-380
推荐	-381
加入	-382
更多的	-383
他们的	-384
输入	-385
行为	-386
知道	-387
太阳	-388
要求	-389
▁F	-390
pp	-391
模型	-392
最近	-393
的问题	-394
答案	-395
并且	-396
角色	-397
客户	-398
告诉	-399
介绍	-400
▁r	-401
▁将	-402
学生	-403
列表	-404
广泛	-405
▁we	-406
正在	-407
起来	-408
他的	-409
表示	-410
功能	-411
利用	-412
天气	-413
机器学习	-414
尝试	-415
▁生成	-416
res	-417
▁on	-418
▁num	-419
000	-420
不是	-421
避免	-422
。5.	-423
控制	-424
任何	-425
挑战	-426
▁x	-427
解释	-428
你可以	-429
▁be	-430
od	-431
企业	-432
▁D	-433
部分	-434
的发展	-435
▁that	-436
▁根据	-437
简单	-438
▁or	-439
饮食	-440
ld	-441
污染	-442
▁with	-443
类型	-444
igh	-445
作用	-446
算法	-447
单词	-448
ver	-449
我们需要	-450
家庭	-451
▁8	-452
▁M	-453
治疗	-454
▁	-455
的	-456
，	-457
。	-458
e	-459
t	-460
a	-461
n	-462
i	-463
o	-464
s	-465
r	-466
一	-467
和	-468
是	-469
l	-470
以	-471
h	-472
个	-473
我	-474
、	-475
.	-476
：	-477
在	-478
c	-479
可	-480
d	-481
u	-482
人	-483
有	-484
能	-485
m	-486
这	-487
1	-488
中	-489
们	-490
了	-491
为	-492
用	-493
p	-494
0	-495
要	-496
2	-497
不	-498
生	-499
f	-500
-	-501
g	-502
y	-503
,	-504
来	-505
如	-506
你	-507
文	-508
成	-509
数	-510
下	-511
于	-512
*	-513
到	-514
时	-515
对	-516
行	-517
b	-518
等	-519
好	-520
学	-521
方	-522
3	-523
会	-524
地	-525
些	-526
出	-527
他	-528
提	-529
5	-530
分	-531
上	-532
w	-533
小	-534
作	-535
？	-536
:	-537
更	-538
多	-539
自	-540
大	-541
题	-542
物	-543
需	-544
工	-545
动	-546
\	-547
发	-548
面	-549
过	-550
并	-551
子	-552
果	-553
关	-554
将	-555
种	-556
理	-557
v	-558
或	-559
保	-560
体	-561
问	-562
最	-563
法	-564
定	-565
4	-566
其	-567
"	-568
应	-569
现	-570
进	-571
加	-572
)	-573
化	-574
性	-575
它	-576
力	-577
同	-578
使	-579
(	-580
您	-581
`	-582
常	-583
通	-584
A	-585
高	-586
据	-587
$	-588
也	-589
类	-590
=	-591
技	-592
解	-593
因	-594
量	-595
品	-596
度	-597
感	-598
然	-599
表	-600
机	-601
情	-602
天	-603
重	-604
家	-605
x	-606
明	-607
本	-608
得	-609
之	-610
智	-611
间	-612
新	-613
给	-614
意	-615
计	-616
而	-617
么	-618
经	-619
语	-620
k	-621
公	-622
程	-623
合	-624
色	-625
此	-626
”	-627
“	-628
T	-629
术	-630
环	-631
业	-632
年	-633
式	-634
入	-635
实	-636
所	-637
主	-638
请	-639
后	-640
影	-641
者	-642
信	-643
电	-644
水	-645
6	-646
供	-647
很	-648
活	-649
建	-650
I	-651
气	-652
着	-653
心	-654
点	-655
与	-656
习	-657
美	-658
名	-659
确	-660
相	-661
制	-662
想	-663
但	-664
S	-665
当	-666
还	-667
助	-668
包	-669
8	-670
都	-671
开	-672
字	-673
具	-674
特	-675
算	-676
展	-677
系	-678
食	-679
该	-680
从	-681
比	-682
产	-683
帮	-684
代	-685
变	-686
球	-687
|	-688
让	-689
章	-690
事	-691
内	-692
全	-693
每	-694
持	-695
国	-696
例	-697
C	-698
非	-699
9	-700
里	-701
写	-702
息	-703
外	-704
）	-705
长	-706
正	-707
起	-708
适	-709
取	-710
说	-711
务	-712
目	-713
日	-714
7	-715
（	-716
选	-717
句	-718
少	-719
词	-720
P	-721
结	-722
平	-723
道	-724
什	-725
位	-726
根	-727
何	-728
质	-729
那	-730
己	-731
器	-732
市	-733
设	-734
及	-735
前	-736
受	-737
境	-738
身	-739
B	-740
科	-741
被	-742
看	-743
场	-744
段	-745
'	-746
创	-747
医	-748
话	-749
交	-750
求	-751
{	-752
}	-753
部	-754
健	-755
回	-756
总	-757
利	-758
手	-759
括	-760
去	-761
注	-762
述	-763
风	-764
件	-765
型	-766
单	-767
_	-768
领	-769
无	-770
两	-771
任	-772
容	-773
司	-774
够	-775
处	-776
期	-777
响	-778
知	-779
篇	-780
别	-781
决	-782
议	-783
社	-784
户	-785
统	-786
效	-787
游	-788
列	-789
放	-790
域	-791
+	-792
步	-793
标	-794
形	-795
格	-796
元	-797
推	-798
样	-799
就	-800
节	-801
#	-802
乐	-803
音	-804
答	-805
料	-806
未	-807
次	-808
减	-809
安	-810
欢	-811
强	-812
指	-813
言	-814
深	-815
识	-816
海	-817
案	-818
示	-819
组	-820
康	-821
护	-822
基	-823
流	-824
择	-825
喜	-826
导	-827
只	-828
素	-829
三	-830
疗	-831
源	-832
首	-833
值	-834
断	-835
考	-836
吗	-837
服	-838
运	-839
由	-840
序	-841
D	-842
调	-843
做	-844
员	-845
没	-846
空	-847
资	-848
M	-849
认	-850
星	-851
光	-852
爱	-853
景	-854
传	-855
E	-856
论	-857
观	-858
试	-859
/	-860
接	-861
改	-862
找	-863
价	-864
验	-865
向	-866
先	-867
各	-868
模	-869
达	-870
带	-871
车	-872
整	-873
已	-874
L	-875
味	-876
网	-877
准	-878
造	-879
太	-880
世	-881
原	-882
增	-883
教	-884
客	-885
完	-886
备	-887
输	-888
花	-889
存	-890
视	-891
口	-892
区	-893
界	-894
思	-895
项	-896
月	-897
历	-898
角	-899
支	-900
温	-901
义	-902
描	-903
金	-904
广	-905
清	-906
简	-907
第	-908
极	-909
管	-910
排	-911
态	-912
功	-913
预	-914
》	-915
《	-916
旅	-917
红	-918
优	-919
O	-920
细	-921
快	-922
菜	-923
则	-924
率	-925
轻	-926
q	-927
始	-928
引	-929
况	-930
测	-931
越	-932
共	-933
且	-934
商	-935
病	-936
告	-937
几	-938
研	-939
近	-940
热	-941
H	-942
！	-943
编	-944
直	-945
致	-946
许	-947
城	-948
反	-949
J	-950
线	-951
；	-952
谢	-953
速	-954
N	-955
随	-956
规	-957
F	-958
否	-959
积	-960
阳	-961
R	-962
象	-963
友	-964
析	-965
觉	-966
复	-967
歌	-968
收	-969
故	-970
望	-971
W	-972
哪	-973
参	-974
听	-975
克	-976
英	-977
满	-978
查	-979
立	-980
战	-981
约	-982
码	-983
足	-984
究	-985
较	-986
虑	-987
份	-988
她	-989
餐	-990
[	-991
划	-992
]	-993
状	-994
神	-995
含	-996
糖	-997
配	-998
续	-999
材	-1000
真	-1001
构	-1002
书	-1003
险	-1004
白	-1005
打	-1006
饮	-1007
键	-1008
趣	-1009
转	-1010
条	-1011
探	-1012
采	-1013
至	-1014
G	-1015
即	-1016
狗	-1017
错	-1018
再	-1019
片	-1020
候	-1021
见	-1022
符	-1023
维	-1024
像	-1025
图	-1026
精	-1027
联	-1028
头	-1029
路	-1030
读	-1031
z	-1032
米	-1033
便	-1034
营	-1035
评	-1036
获	-1037
肉	-1038
策	-1039
置	-1040
销	-1041
低	-1042
练	-1043
史	-1044
命	-1045
易	-1046
诗	-1047
短	-1048
女	-1049
师	-1050
治	-1051
老	-1052
施	-1053
免	-1054
育	-1055
互	-1056
享	-1057
队	-1058
尽	-1059
翻	-1060
独	-1061
张	-1062
费	-1063
记	-1064
富	-1065
山	-1066
演	-1067
消	-1068
难	-1069
落	-1070
索	-1071
除	-1072
充	-1073
戏	-1074
吸	-1075
兴	-1076
周	-1077
装	-1078
称	-1079
西	-1080
夏	-1081
斯	-1082
购	-1083
证	-1084
控	-1085
买	-1086
今	-1087
希	-1088
专	-1089
仅	-1090
升	-1091
二	-1092
照	-1093
才	-1094
丽	-1095
报	-1096
养	-1097
朋	-1098
律	-1099
款	-1100
集	-1101
香	-1102
?	-1103
号	-1104
必	-1105
政	-1106
释	-1107
呢	-1108
蛋	-1109
介	-1110
均	-1111
门	-1112
离	-1113
某	-1114
尝	-1115
染	-1116
季	-1117
际	-1118
诉	-1119
压	-1120
把	-1121
·	-1122
j	-1123
译	-1124
函	-1125
油	-1126
布	-1127
失	-1128
势	-1129
投	-1130
围	-1131
艺	-1132
团	-1133
猫	-1134
黑	-1135
^	-1136
寻	-1137
职	-1138
密	-1139
李	-1140
植	-1141
孩	-1142
终	-1143
远	-1144
边	-1145
吃	-1146
声	-1147
避	-1148
火	-1149
换	-1150
泛	-1151
挑	-1152
荐	-1153
切	-1154
房	-1155
古	-1156
松	-1157
烤	-1158
按	-1159
巧	-1160
四	-1161
企	-1162
绍	-1163
另	-1164
限	-1165
修	-1166
防	-1167
训	-1168
庭	-1169
善	-1170
污	-1171
售	-1172
念	-1173
降	-1174
鸡	-1175
民	-1176
台	-1177
华	-1178
牌	-1179
赛	-1180
块	-1181
丰	-1182
拥	-1183
玩	-1184
干	-1185
园	-1186
拉	-1187
五	-1188
误	-1189
负	-1190
尔	-1191
讲	-1192
马	-1193
概	-1194
措	-1195
画	-1196
融	-1197
黄	-1198
苹	-1199
害	-1200
走	-1201
德	-1202
似	-1203
草	-1204
检	-1205
讨	-1206
男	-1207
酒	-1208
母	-1209
络	-1210
曲	-1211
X	-1212
绿	-1213
林	-1214
士	-1215
显	-1216
鱼	-1217
激	-1218
牛	-1219
级	-1220
详	-1221
%	-1222
十	-1223
益	-1224
微	-1225
颜	-1226
树	-1227
飞	-1228
著	-1229
奶	-1230
北	-1231
属	-1232
软	-1233
晚	-1234
层	-1235
室	-1236
怎	-1237
往	-1238
;	-1239
普	-1240
儿	-1241
U	-1242
奇	-1243
超	-1244
征	-1245
众	-1246
济	-1247
争	-1248
吧	-1249
站	-1250
钟	-1251
>	-1252
王	-1253
良	-1254
V	-1255
南	-1256
暖	-1257
待	-1258
Y	-1259
骤	-1260
咖	-1261
略	-1262
杂	-1263
疾	-1264
居	-1265
灵	-1266
刻	-1267
亚	-1268
责	-1269
令	-1270
药	-1271
权	-1272
遇	-1273
啡	-1274
静	-1275
宝	-1276
万	-1277
鲜	-1278
早	-1279
叶	-1280
东	-1281
厅	-1282
洋	-1283
店	-1284
夜	-1285
沙	-1286
粉	-1287
患	-1288
范	-1289
假	-1290
缺	-1291
闻	-1292
差	-1293
石	-1294
追	-1295
织	-1296
波	-1297
巴	-1298
严	-1299
典	-1300
连	-1301
异	-1302
雨	-1303
努	-1304
笔	-1305
汽	-1306
背	-1307
衡	-1308
浪	-1309
诊	-1310
洁	-1311
散	-1312
福	-1313
摘	-1314
摄	-1315
阅	-1316
询	-1317
卡	-1318
操	-1319
氧	-1320
脑	-1321
京	-1322
冰	-1323
印	-1324
杯	-1325
秋	-1326
土	-1327
皮	-1328
录	-1329
监	-1330
促	-1331
穿	-1332
舒	-1333
鸟	-1334
春	-1335
住	-1336
判	-1337
梦	-1338
彩	-1339
垃	-1340
圾	-1341
衣	-1342
剧	-1343
又	-1344
蓝	-1345
协	-1346
串	-1347
初	-1348
困	-1349
励	-1350
板	-1351
临	-1352
逐	-1353
云	-1354
额	-1355
突	-1356
渐	-1357
岁	-1358
眼	-1359
迎	-1360
拟	-1361
慢	-1362
府	-1363
破	-1364
舞	-1365
坚	-1366
睡	-1367
蔬	-1368
媒	-1369
群	-1370
击	-1371
呼	-1372
筑	-1373
辑	-1374
财	-1375
须	-1376
亲	-1377
举	-1378
木	-1379
紧	-1380
移	-1381
留	-1382
豆	-1383
止	-1384
射	-1385
血	-1386
K	-1387
执	-1388
族	-1389
归	-1390
亮	-1391
添	-1392
缓	-1393
症	-1394
频	-1395
伤	-1396
乘	-1397
—	-1398
虽	-1399
笑	-1400
核	-1401
青	-1402
礼	-1403
趋	-1404
潜	-1405
驶	-1406
础	-1407
跑	-1408
颗	-1409
尊	-1410
洲	-1411
漫	-1412
稳	-1413
盐	-1414
隐	-1415
馆	-1416
酸	-1417
付	-1418
担	-1419
塑	-1420
巨	-1421
罗	-1422
酱	-1423
混	-1424
底	-1425
熟	-1426
沟	-1427
剩	-1428
秘	-1429
愿	-1430
涉	-1431
钱	-1432
竞	-1433
洗	-1434
疫	-1435
继	-1436
院	-1437
聊	-1438
依	-1439
尼	-1440
威	-1441
链	-1442
私	-1443
顺	-1444
惯	-1445
冷	-1446
距	-1447
送	-1448
端	-1449
座	-1450
票	-1451
办	-1452
针	-1453
野	-1454
校	-1455
<	-1456
河	-1457
宇	-1458
储	-1459
估	-1460
志	-1461
茶	-1462
察	-1463
圆	-1464
献	-1465
炼	-1466
搭	-1467
半	-1468
阿	-1469
盖	-1470
循	-1471
碳	-1472
鼓	-1473
绪	-1474
警	-1475
替	-1476
双	-1477
佳	-1478
卫	-1479
滩	-1480
椒	-1481
驾	-1482
眠	-1483
纪	-1484
虚	-1485
库	-1486
洞	-1487
返	-1488
百	-1489
班	-1490
课	-1491
幸	-1492
仍	-1493
叫	-1494
刚	-1495
却	-1496
箱	-1497
农	-1498
培	-1499
余	-1500
炒	-1501
跟	-1502
顾	-1503
毛	-1504
汤	-1505
透	-1506
疑	-1507
煮	-1508
哈	-1509
般	-1510
伴	-1511
!	-1512
千	-1513
灯	-1514
掌	-1515
倒	-1516
休	-1517
锻	-1518
径	-1519
胜	-1520
宠	-1521
饰	-1522
偏	-1523
承	-1524
跳	-1525
繁	-1526
途	-1527
幻	-1528
宙	-1529
锅	-1530
甜	-1531
坏	-1532
邮	-1533
啊	-1534
歧	-1535
危	-1536
聚	-1537
银	-1538
铁	-1539
折	-1540
纸	-1541
伦	-1542
综	-1543
局	-1544
萨	-1545
盘	-1546
Q	-1547
伽	-1548
搜	-1549
玛	-1550
右	-1551
股	-1552
浓	-1553
损	-1554
柔	-1555
糕	-1556
尚	-1557
焦	-1558
勇	-1559
龙	-1560
博	-1561
森	-1562
航	-1563
绝	-1564
障	-1565
烈	-1566
官	-1567
左	-1568
橙	-1569
纳	-1570
版	-1571
瑜	-1572
握	-1573
坐	-1574
液	-1575
末	-1576
饭	-1577
沉	-1578
汁	-1579
惊	-1580
靠	-1581
毒	-1582
奖	-1583
播	-1584
州	-1585
匀	-1586
停	-1587
宣	-1588
汇	-1589
谈	-1590
午	-1591
军	-1592
龄	-1593
脂	-1594
久	-1595
烧	-1596
兰	-1597
痛	-1598
灾	-1599
贡	-1600
货	-1601
忆	-1602
迷	-1603
葱	-1604
峰	-1605
袋	-1606
燃	-1607
藏	-1608
永	-1609
肤	-1610
扩	-1611
露	-1612
曾	-1613
贵	-1614
守	-1615
抽	-1616
愉	-1617
赏	-1618
牙	-1619
拌	-1620
泳	-1621
雪	-1622
挥	-1623
婚	-1624
姆	-1625
遗	-1626
辣	-1627
暴	-1628
辆	-1629
固	-1630
缩	-1631
冲	-1632
束	-1633
脚	-1634
×	-1635
省	-1636
递	-1637
冒	-1638
架	-1639
拿	-1640
魔	-1641
肌	-1642
净	-1643
孤	-1644
币	-1645
丝	-1646
胡	-1647
泡	-1648
耐	-1649
奥	-1650
犯	-1651
夫	-1652
祝	-1653
救	-1654
忘	-1655
饼	-1656
谱	-1657
汉	-1658
岛	-1659
奏	-1660
拼	-1661
谁	-1662
启	-1663
秀	-1664
抗	-1665
凉	-1666
乳	-1667
润	-1668
订	-1669
湿	-1670
乎	-1671
攻	-1672
革	-1673
呈	-1674
遵	-1675
朗	-1676
访	-1677
映	-1678
宽	-1679
欧	-1680
遍	-1681
妈	-1682
肥	-1683
暗	-1684
醒	-1685
登	-1686
床	-1687
剂	-1688
硬	-1689
熊	-1690
喝	-1691
废	-1692
阶	-1693
а	-1694
池	-1695
敏	-1696
死	-1697
冬	-1698
湖	-1699
楼	-1700
践	-1701
烹	-1702
佛	-1703
旋	-1704
劳	-1705
旨	-1706
茄	-1707
棒	-1708
滑	-1709
罪	-1710
塔	-1711
铅	-1712
唱	-1713
绘	-1714
珍	-1715
触	-1716
籍	-1717
鞋	-1718
轮	-1719
晰	-1720
税	-1721
谷	-1722
恐	-1723
麦	-1724
绩	-1725
欣	-1726
炎	-1727
急	-1728
零	-1729
尤	-1730
氛	-1731
о	-1732
童	-1733
签	-1734
蜜	-1735
抱	-1736
忙	-1737
搅	-1738
父	-1739
耗	-1740
番	-1741
披	-1742
弃	-1743
套	-1744
逻	-1745
蒜	-1746
恒	-1747
掉	-1748
陈	-1749
玉	-1750
页	-1751
载	-1752
招	-1753
诚	-1754
幅	-1755
胞	-1756
厚	-1757
捷	-1758
÷	-1759
顿	-1760
仿	-1761
朵	-1762
瓶	-1763
尾	-1764
’	-1765
杰	-1766
朝	-1767
尺	-1768
附	-1769
甚	-1770
恶	-1771
卷	-1772
审	-1773
宫	-1774
畅	-1775
珠	-1776
刺	-1777
咨	-1778
殊	-1779
纽	-1780
派	-1781
肪	-1782
犬	-1783
赞	-1784
馈	-1785
苦	-1786
篮	-1787
倾	-1788
补	-1789
封	-1790
艾	-1791
甲	-1792
娱	-1793
怀	-1794
拍	-1795
骨	-1796
斗	-1797
占	-1798
虫	-1799
彼	-1800
饪	-1801
胁	-1802
慧	-1803
厘	-1804
街	-1805
江	-1806
申	-1807
苏	-1808
桌	-1809
偶	-1810
個	-1811
骑	-1812
悦	-1813
妙	-1814
耳	-1815
瓜	-1816
震	-1817
闭	-1818
敬	-1819
黎	-1820
奋	-1821
宜	-1822
幕	-1823
脱	-1824
е	-1825
默	-1826
填	-1827
郁	-1828
村	-1829
览	-1830
窗	-1831
六	-1832
翰	-1833
顶	-1834
麻	-1835
蕉	-1836
贝	-1837
辅	-1838
莓	-1839
é	-1840
船	-1841
哲	-1842
烟	-1843
乏	-1844
迹	-1845
雅	-1846
腿	-1847
寿	-1848
惠	-1849
誉	-1850
哥	-1851
肴	-1852
坦	-1853
ا	-1854
闪	-1855
蒸	-1856
绕	-1857
弹	-1858
既	-1859
退	-1860
延	-1861
昨	-1862
и	-1863
败	-1864
粒	-1865
碎	-1866
浮	-1867
潮	-1868
借	-1869
盛	-1870
镜	-1871
账	-1872
泰	-1873
宗	-1874
寒	-1875
淡	-1876
寸	-1877
屋	-1878
予	-1879
…	-1880
鼠	-1881
葡	-1882
腐	-1883
档	-1884
蜂	-1885
н	-1886
萄	-1887
闲	-1888
亿	-1889
诺	-1890
弱	-1891
墙	-1892
厨	-1893
敢	-1894
哺	-1895
川	-1896
炸	-1897
批	-1898
踪	-1899
壮	-1900
乡	-1901
迅	-1902
仰	-1903
隔	-1904
赖	-1905
聘	-1906
氏	-1907
扮	-1908
圣	-1909
卖	-1910
苗	-1911
宁	-1912
钢	-1913
脏	-1914
倍	-1915
纠	-1916
荣	-1917
吹	-1918
庆	-1919
阵	-1920
爆	-1921
聪	-1922
紫	-1923
冠	-1924
镇	-1925
壤	-1926
涵	-1927
八	-1928
授	-1929
為	-1930
淋	-1931
兔	-1932
匙	-1933
飘	-1934
覆	-1935
晨	-1936
姿	-1937
薄	-1938
脸	-1939
屏	-1940
托	-1941
姓	-1942
這	-1943
唯	-1944
仔	-1945
疲	-1946
荷	-1947
冥	-1948
捕	-1949
扰	-1950
违	-1951
匹	-1952
睛	-1953
址	-1954
萝	-1955
贴	-1956
累	-1957
亡	-1958
剪	-1959
丁	-1960
督	-1961
陆	-1962
田	-1963
堡	-1964
雷	-1965
毫	-1966
矿	-1967
堂	-1968
т	-1969
恩	-1970
侧	-1971
迪	-1972
洛	-1973
纤	-1974
插	-1975
Z	-1976
癌	-1977
芝	-1978
爽	-1979
爬	-1980
框	-1981
羊	-1982
摩	-1983
菌	-1984
杀	-1985
塞	-1986
盒	-1987
撰	-1988
灰	-1989
阻	-1990
姜	-1991
纷	-1992
吉	-1993
鸣	-1994
恋	-1995
莉	-1996
摇	-1997
猎	-1998
唐	-1999
柠	-2000
仪	-2001
逃	-2002
悲	-2003
跨	-2004
怕	-2005
涂	-2006
蹈	-2007
七	-2008
纯	-2009
宾	-2010
檬	-2011
悠	-2012
谐	-2013
℃	-2014
懂	-2015
租	-2016
磁	-2017
埃	-2018
肺	-2019
桥	-2020
肯	-2021
忽	-2022
毕	-2023
哦	-2024
武	-2025
咪	-2026
旧	-2027
灭	-2028
稍	-2029
歉	-2030
裤	-2031
р	-2032
脉	-2033
雄	-2034
嗯	-2035
漂	-2036
侵	-2037
碗	-2038
若	-2039
猪	-2040
拓	-2041
晴	-2042
悬	-2043
帝	-2044
副	-2045
圈	-2046
碍	-2047
秒	-2048
忠	-2049
戴	-2050
跃	-2051
琴	-2052
赢	-2053
們	-2054
°	-2055
恢	-2056
扬	-2057
摆	-2058
枝	-2059
橄	-2060
阴	-2061
沿	-2062
鸭	-2063
滤	-2064
磨	-2065
忧	-2066
榄	-2067
芳	-2068
撒	-2069
с	-2070
阔	-2071
酪	-2072
伙	-2073
轨	-2074
岩	-2075
悉	-2076
伊	-2077
陪	-2078
學	-2079
胸	-2080
氢	-2081
伟	-2082
禁	-2083
刀	-2084
岸	-2085
掘	-2086
乱	-2087
擅	-2088
矩	-2089
允	-2090
卜	-2091
赋	-2092
拂	-2093
對	-2094
貌	-2095
の	-2096
肠	-2097
叹	-2098
伸	-2099
殖	-2100
來	-2101
尿	-2102
煎	-2103
ل	-2104
怪	-2105
菇	-2106
扣	-2107
纹	-2108
刷	-2109
莫	-2110
乙	-2111
陷	-2112
伯	-2113
霜	-2114
魅	-2115
斜	-2116
菲	-2117
滴	-2118
欲	-2119
罚	-2120
瑞	-2121
谓	-2122
卧	-2123
桃	-2124
九	-2125
妆	-2126
挂	-2127
墨	-2128
晒	-2129
狐	-2130
芒	-2131
時	-2132
會	-2133
於	-2134
遭	-2135
删	-2136
谊	-2137
曼	-2138
拔	-2139
爸	-2140
缘	-2141
耀	-2142
驱	-2143
抑	-2144
携	-2145
棋	-2146
皇	-2147
幽	-2148
狮	-2149
翅	-2150
鉴	-2151
猜	-2152
馨	-2153
滚	-2154
铺	-2155
阐	-2156
漏	-2157
穆	-2158
浸	-2159
擎	-2160
梅	-2161
豪	-2162
脆	-2163
乔	-2164
逊	-2165
渠	-2166
抵	-2167
敦	-2168
蝶	-2169
鲸	-2170
尘	-2171
壁	-2172
惜	-2173
裁	-2174
莎	-2175
烦	-2176
割	-2177
勒	-2178
喻	-2179
в	-2180
醉	-2181
俗	-2182
醋	-2183
狸	-2184
婴	-2185
椅	-2186
耍	-2187
残	-2188
裂	-2189
玻	-2190
荡	-2191
糊	-2192
盆	-2193
盈	-2194
嫌	-2195
凝	-2196
迫	-2197
撑	-2198
鲁	-2199
弦	-2200
盗	-2201
燥	-2202
溶	-2203
燕	-2204
楚	-2205
械	-2206
泥	-2207
泊	-2208
凡	-2209
蒙	-2210
蒂	-2211
л	-2212
揭	-2213
淇	-2214
宿	-2215
甘	-2216
筛	-2217
虾	-2218
棕	-2219
徒	-2220
璃	-2221
狂	-2222
虎	-2223
寂	-2224
抓	-2225
晶	-2226
莱	-2227
诸	-2228
擦	-2229
谜	-2230
仙	-2231
妇	-2232
邀	-2233
國	-2234
疼	-2235
谨	-2236
芬	-2237
挖	-2238
動	-2239
壳	-2240
喷	-2241
贫	-2242
浴	-2243
瑰	-2244
蘑	-2245
撞	-2246
瓣	-2247
册	-2248
浅	-2249
膜	-2250
旁	-2251
暂	-2252
贷	-2253
盟	-2254
堆	-2255
孔	-2256
á	-2257
盾	-2258
漠	-2259
「	-2260
」	-2261
锁	-2262
泄	-2263
烂	-2264
發	-2265
洪	-2266
胃	-2267
援	-2268
薪	-2269
к	-2270
兵	-2271
债	-2272
庄	-2273
す	-2274
仁	-2275
韩	-2276
洒	-2277
羽	-2278
欺	-2279
竹	-2280
鼻	-2281
厂	-2282
艳	-2283
 	-2284
茨	-2285
²	-2286
逆	-2287
裙	-2288
扫	-2289
袖	-2290
乌	-2291
慈	-2292
弟	-2293
颈	-2294
慎	-2295
齐	-2296
腻	-2297
偷	-2298
遥	-2299
罩	-2300
弗	-2301
堵	-2302
券	-2303
桶	-2304
讯	-2305
烘	-2306
敌	-2307
奔	-2308
ा	-2309
渴	-2310
央	-2311
蝴	-2312
娜	-2313
栖	-2314
贾	-2315
抹	-2316
叠	-2317
绳	-2318
&	-2319
拜	-2320
薯	-2321
勤	-2322
妻	-2323
矛	-2324
膀	-2325
嗨	-2326
斑	-2327
柿	-2328
弯	-2329
穷	-2330
凯	-2331
麼	-2332
溯	-2333
肖	-2334
港	-2335
懒	-2336
姻	-2337
愈	-2338
→	-2339
契	-2340
辐	-2341
寓	-2342
泪	-2343
炉	-2344
刘	-2345
惑	-2346
م	-2347
昆	-2348
魂	-2349
滋	-2350
垂	-2351
雾	-2352
丧	-2353
沸	-2354
韵	-2355
д	-2356
淀	-2357
斤	-2358
浆	-2359
浏	-2360
勃	-2361
岗	-2362
進	-2363
惧	-2364
巾	-2365
鹅	-2366
瞬	-2367
齿	-2368
胶	-2369
截	-2370
噪	-2371
夹	-2372
犹	-2373
稿	-2374
泉	-2375
尖	-2376
腹	-2377
迈	-2378
旦	-2379
و	-2380
嫩	-2381
柜	-2382
橘	-2383
振	-2384
ن	-2385
卓	-2386
涯	-2387
饱	-2388
佩	-2389
玫	-2390
侣	-2391
現	-2392
ر	-2393
轴	-2394
扎	-2395
祖	-2396
垫	-2397
雕	-2398
м	-2399
贸	-2400
兽	-2401
绵	-2402
狼	-2403
怖	-2404
ي	-2405
帽	-2406
梯	-2407
丹	-2408
碱	-2409
韧	-2410
邻	-2411
委	-2412
陶	-2413
浇	-2414
媚	-2415
荒	-2416
陌	-2417
腊	-2418
碑	-2419
叉	-2420
翔	-2421
劣	-2422
梨	-2423
腰	-2424
拖	-2425
伏	-2426
雇	-2427
粮	-2428
迭	-2429
鹿	-2430
旱	-2431
骗	-2432
倡	-2433
臂	-2434
棉	-2435
肝	-2436
粘	-2437
攀	-2438
辞	-2439
蛇	-2440
酵	-2441
妹	-2442
伐	-2443
幼	-2444
刑	-2445
腾	-2446
辛	-2447
毁	-2448
胆	-2449
踏	-2450
у	-2451
瑟	-2452
诈	-2453
í	-2454
胎	-2455
は	-2456
寺	-2457
迟	-2458
勺	-2459
涨	-2460
碰	-2461
琳	-2462
肩	-2463
衫	-2464
叙	-2465
π	-2466
孙	-2467
い	-2468
並	-2469
铃	-2470
ó	-2471
涌	-2472
種	-2473
嘴	-2474
@	-2475
腺	-2476
п	-2477
％	-2478
俄	-2479
猴	-2480
を	-2481
瓦	-2482
夕	-2483
霍	-2484
醇	-2485
し	-2486
彻	-2487
枚	-2488
呀	-2489
席	-2490
泽	-2491
昂	-2492
伍	-2493
坛	-2494
過	-2495
钮	-2496
卢	-2497
間	-2498
署	-2499
舍	-2500
ま	-2501
捉	-2502
箭	-2503
瓷	-2504
黛	-2505
姐	-2506
庙	-2507
體	-2508
御	-2509
恰	-2510
柱	-2511
沃	-2512
拒	-2513
艰	-2514
賽	-2515
翩	-2516
夺	-2517
伞	-2518
ت	-2519
數	-2520
茫	-2521
横	-2522
翠	-2523
君	-2524
喂	-2525
贯	-2526
胖	-2527
枫	-2528
碧	-2529
孕	-2530
迁	-2531
à	-2532
で	-2533
澳	-2534
悟	-2535
挫	-2536
्	-2537
溪	-2538
缝	-2539
肿	-2540
疏	-2541
斐	-2542
梁	-2543
邦	-2544
杉	-2545
窃	-2546
に	-2547
戒	-2548
党	-2549
–	-2550
钻	-2551
脊	-2552
兼	-2553
逝	-2554
钥	-2555
溢	-2556
稀	-2557
逗	-2558
衬	-2559
橡	-2560
闹	-2561
挺	-2562
赶	-2563
與	-2564
珊	-2565
赎	-2566
竟	-2567
闰	-2568
र	-2569
瘦	-2570
胀	-2571
慰	-2572
卉	-2573
旗	-2574
裔	-2575
應	-2576
宴	-2577
腔	-2578
ä	-2579
忍	-2580
辨	-2581
翼	-2582
诞	-2583
將	-2584
怒	-2585
酷	-2586
赠	-2587
偿	-2588
牵	-2589
县	-2590
遮	-2591
菠	-2592
扇	-2593
吐	-2594
虹	-2595
辉	-2596
笼	-2597
膳	-2598
螺	-2599
砂	-2600
袭	-2601
る	-2602
क	-2603
د	-2604
汗	-2605
矶	-2606
粗	-2607
開	-2608
惩	-2609
帕	-2610
腌	-2611
暑	-2612
坡	-2613
弥	-2614
庞	-2615
~	-2616
俱	-2617
唤	-2618
铜	-2619
娘	-2620
役	-2621
後	-2622
赫	-2623
谋	-2624
蚁	-2625
爷	-2626
拆	-2627
題	-2628
が	-2629
寄	-2630
晋	-2631
焙	-2632
愁	-2633
猛	-2634
抢	-2635
扑	-2636
夷	-2637
隆	-2638
丛	-2639
辩	-2640
婆	-2641
衰	-2642
恼	-2643
問	-2644
術	-2645
場	-2646
枯	-2647
戰	-2648
绒	-2649
锐	-2650
绽	-2651
肢	-2652
宏	-2653
杨	-2654
摸	-2655
丢	-2656
機	-2657
杜	-2658
經	-2659
缀	-2660
跌	-2661
鹰	-2662
鬼	-2663
毅	-2664
颖	-2665
關	-2666
剑	-2667
钓	-2668
¥	-2669
拯	-2670
桂	-2671
讓	-2672
習	-2673
豹	-2674
【	-2675
】	-2676
當	-2677
烁	-2678
滨	-2679
潺	-2680
仇	-2681
י	-2682
凌	-2683
鲨	-2684
芯	-2685
杆	-2686
吁	-2687
な	-2688
я	-2689
ب	-2690
棵	-2691
煸	-2692
挤	-2693
г	-2694
砖	-2695
と	-2696
咳	-2697
饲	-2698
龟	-2699
裹	-2700
纵	-2701
冻	-2702
े	-2703
壶	-2704
資	-2705
匆	-2706
柳	-2707
た	-2708
捞	-2709
盲	-2710
罐	-2711
伪	-2712
碌	-2713
蚂	-2714
蕴	-2715
厦	-2716
蝉	-2717
澈	-2718
計	-2719
催	-2720
湾	-2721
懈	-2722
夸	-2723
業	-2724
狱	-2725
捐	-2726
赔	-2727
沮	-2728
啤	-2729
钠	-2730
悄	-2731
啦	-2732
凭	-2733
妮	-2734
て	-2735
亦	-2736
抚	-2737
沫	-2738
ו	-2739
牧	-2740
爵	-2741
仓	-2742
哇	-2743
崇	-2744
膨	-2745
酥	-2746
缠	-2747
淘	-2748
漆	-2749
珂	-2750
昏	-2751
า	-2752
厉	-2753
恨	-2754
勾	-2755
ı	-2756
枪	-2757
讼	-2758
芽	-2759
瘤	-2760
ы	-2761
樱	-2762
赤	-2763
據	-2764
俯	-2765
抛	-2766
杏	-2767
毯	-2768
哭	-2769
氮	-2770
	-2771
吞	-2772
ی	-2773
咬	-2774
ه	-2775
з	-2776
爪	-2777
語	-2778
挡	-2779
恤	-2780
蓄	-2781
荫	-2782
詹	-2783
莲	-2784
届	-2785
確	-2786
椎	-2787
傲	-2788
湛	-2789
畏	-2790
梳	-2791
栏	-2792
宋	-2793
瑚	-2794
躲	-2795
ー	-2796
邪	-2797
穴	-2798
帘	-2799
炖	-2800
逛	-2801
砍	-2802
兄	-2803
α	-2804
吨	-2805
扭	-2806
赵	-2807
椰	-2808
惫	-2809
宅	-2810
泼	-2811
屿	-2812
渗	-2813
痕	-2814
纲	-2815
產	-2816
锦	-2817
皆	-2818
慨	-2819
削	-2820
丘	-2821
栽	-2822
崩	-2823
灌	-2824
喉	-2825
侠	-2826
召	-2827
妥	-2828
抬	-2829
朴	-2830
锋	-2831
茂	-2832
й	-2833
帐	-2834
筹	-2835
搞	-2836
井	-2837
嘉	-2838
滥	-2839
س	-2840
钙	-2841
糟	-2842
灿	-2843
骼	-2844
舟	-2845
น	-2846
殿	-2847
б	-2848
渡	-2849
硫	-2850
ร	-2851
統	-2852
設	-2853
牢	-2854
扶	-2855
氨	-2856
衷	-2857
è	-2858
苍	-2859
膏	-2860
न	-2861
饺	-2862
慕	-2863
酶	-2864
蛛	-2865
赚	-2866
朱	-2867
ि	-2868
侦	-2869
疯	-2870
峡	-2871
粥	-2872
凑	-2873
霞	-2874
स	-2875
兹	-2876
實	-2877
拳	-2878
舌	-2879
诱	-2880
ה	-2881
焰	-2882
寞	-2883
蕾	-2884
哀	-2885
哑	-2886
桑	-2887
矮	-2888
吊	-2889
挚	-2890
盎	-2891
れ	-2892
蚊	-2893
瀑	-2894
嗽	-2895
巢	-2896
怨	-2897
溃	-2898
榜	-2899
抒	-2900
馅	-2901
筋	-2902
　	-2903
澡	-2904
點	-2905
礁	-2906
眉	-2907
і	-2908
稻	-2909
押	-2910
議	-2911
吴	-2912
廉	-2913
沐	-2914
晓	-2915
蜡	-2916
椭	-2917
咸	-2918
‘	-2919
愤	-2920
決	-2921
嘿	-2922
奈	-2923
陵	-2924
晕	-2925
芹	-2926
娃	-2927
履	-2928
त	-2929
蚀	-2930
從	-2931
幫	-2932
惕	-2933
徐	-2934
肾	-2935
ç	-2936
ü	-2937
畔	-2938
廷	-2939
歇	-2940
泌	-2941
琐	-2942
萧	-2943
風	-2944
秦	-2945
嵌	-2946
巫	-2947
磅	-2948
蜘	-2949
劲	-2950
豫	-2951
搬	-2952
屈	-2953
烷	-2954
逼	-2955
蛙	-2956
郎	-2957
豚	-2958
狩	-2959
姑	-2960
怡	-2961
烛	-2962
凸	-2963
津	-2964
祭	-2965
嗅	-2966
煤	-2967
雀	-2968
艇	-2969
峻	-2970
饿	-2971
躺	-2972
梵	-2973
อ	-2974
喱	-2975
奉	-2976
類	-2977
柏	-2978
結	-2979
霸	-2980
運	-2981
響	-2982
•	-2983
祈	-2984
內	-2985
長	-2986
绚	-2987
質	-2988
撼	-2989
彰	-2990
闷	-2991
≈	-2992
扔	-2993
劫	-2994
菊	-2995
掩	-2996
秩	-2997
ь	-2998
芦	-2999
樣	-3000
य	-3001
卵	-3002
選	-3003
鳄	-3004
涤	-3005
稠	-3006
電	-3007
颠	-3008
墓	-3009
祥	-3010
贪	-3011
氣	-3012
唇	-3013
糯	-3014
務	-3015
曳	-3016
渔	-3017
氯	-3018
丙	-3019
ة	-3020
樂	-3021
刹	-3022
該	-3023
炭	-3024
斥	-3025
塘	-3026
變	-3027
旷	-3028
淌	-3029
弄	-3030
ع	-3031
こ	-3032
請	-3033
喧	-3034
敞	-3035
惰	-3036
奢	-3037
か	-3038
弊	-3039
標	-3040
說	-3041
√	-3042
்	-3043
還	-3044
ी	-3045
塌	-3046
厌	-3047
猩	-3048
坪	-3049
凤	-3050
衍	-3051
谣	-3052
埋	-3053
￥	-3054
ف	-3055
孟	-3056
梭	-3057
酬	-3058
柴	-3059
網	-3060
讶	-3061
董	-3062
蟹	-3063
涛	-3064
浩	-3065
膝	-3066
凶	-3067
曹	-3068
म	-3069
ं	-3070
్	-3071
蹲	-3072
辰	-3073
ल	-3074
谧	-3075
ч	-3076
堪	-3077
環	-3078
ö	-3079
軍	-3080
囊	-3081
่	-3082
佣	-3083
夠	-3084
竭	-3085
ο	-3086
熔	-3087
呵	-3088
り	-3089
帆	-3090
悔	-3091
纱	-3092
া	-3093
贺	-3094
裡	-3095
ి	-3096
筒	-3097
倦	-3098
奠	-3099
飓	-3100
枕	-3101
仑	-3102
調	-3103
敲	-3104
τ	-3105
葵	-3106
ン	-3107
妨	-3108
嬉	-3109
沥	-3110
區	-3111
臭	-3112
赁	-3113
喊	-3114
創	-3115
逸	-3116
缴	-3117
罕	-3118
饥	-3119
扁	-3120
株	-3121
曝	-3122
ก	-3123
艘	-3124
邃	-3125
糙	-3126
牲	-3127
蓬	-3128
適	-3129
無	-3130
旺	-3131
绸	-3132
เ	-3133
剥	-3134
揉	-3135
廊	-3136
慌	-3137
锈	-3138
巷	-3139
ל	-3140
啸	-3141
柯	-3142
帖	-3143
熬	-3144
玲	-3145
儒	-3146
叔	-3147
傳	-3148
吵	-3149
ง	-3150
咙	-3151
丑	-3152
叛	-3153
র	-3154
摧	-3155
呆	-3156
噬	-3157
肃	-3158
拨	-3159
铝	-3160
強	-3161
觀	-3162
昔	-3163
帅	-3164
ă	-3165
鲍	-3166
丈	-3167
磷	-3168
ר	-3169
钾	-3170
绑	-3171
踢	-3172
處	-3173
佐	-3174
聆	-3175
ह	-3176
狭	-3177
達	-3178
逢	-3179
募	-3180
參	-3181
員	-3182
谎	-3183
導	-3184
抖	-3185
圳	-3186
篡	-3187
萌	-3188
颁	-3189
乃	-3190
硅	-3191
茎	-3192
杭	-3193
舉	-3194
筝	-3195
漾	-3196
誓	-3197
隙	-3198
灣	-3199
吻	-3200
卸	-3201
鸦	-3202
骄	-3203
悚	-3204
্	-3205
牺	-3206
薛	-3207
吓	-3208
舱	-3209
柚	-3210
绣	-3211
義	-3212
浦	-3213
嚣	-3214
栈	-3215
坑	-3216
烫	-3217
ת	-3218
耶	-3219
辈	-3220
挣	-3221
窝	-3222
屑	-3223
煌	-3224
摔	-3225
脾	-3226
ι	-3227
彗	-3228
ా	-3229
ε	-3230
仲	-3231
隊	-3232
廓	-3233
欠	-3234
坊	-3235
濒	-3236
이	-3237
鳞	-3238
郊	-3239
痴	-3240
प	-3241
韦	-3242
ж	-3243
ั	-3244
あ	-3245
ス	-3246
璨	-3247
다	-3248
戶	-3249
巡	-3250
弧	-3251
節	-3252
焯	-3253
凋	-3254
璀	-3255
钩	-3256
ك	-3257
暮	-3258
皂	-3259
掷	-3260
茸	-3261
梗	-3262
組	-3263
肚	-3264
蓉	-3265
ב	-3266
篷	-3267
吟	-3268
鸽	-3269
瞩	-3270
鹦	-3271
藻	-3272
ে	-3273
ม	-3274
ν	-3275
亞	-3276
車	-3277
鹉	-3278
ā	-3279
嚼	-3280
纬	-3281
粹	-3282
測	-3283
谦	-3284
棍	-3285
汪	-3286
驗	-3287
帶	-3288
х	-3289
恭	-3290
א	-3291
別	-3292
坠	-3293
戈	-3294
缤	-3295
識	-3296
缚	-3297
總	-3298
乒	-3299
晖	-3300
晃	-3301
ق	-3302
ो	-3303
勿	-3304
黏	-3305
さ	-3306
拭	-3307
論	-3308
铭	-3309
淆	-3310
搏	-3311
מ	-3312
驰	-3313
乓	-3314
維	-3315
聯	-3316
憾	-3317
曦	-3318
缕	-3319
茵	-3320
涩	-3321
崛	-3322
đ	-3323
禽	-3324
摊	-3325
玄	-3326
阁	-3327
傍	-3328
擇	-3329
棘	-3330
أ	-3331
う	-3332
ú	-3333
愛	-3334
翁	-3335
刊	-3336
炮	-3337
兩	-3338
蝠	-3339
ี	-3340
涡	-3341
甫	-3342
踩	-3343
轿	-3344
栋	-3345
撤	-3346
拾	-3347
硕	-3348
許	-3349
籽	-3350
卑	-3351
钉	-3352
巅	-3353
護	-3354
ం	-3355
試	-3356
缸	-3357
贼	-3358
ি	-3359
盼	-3360
讽	-3361
雁	-3362
髓	-3363
氦	-3364
徽	-3365
赌	-3366
浙	-3367
澄	-3368
細	-3369
斓	-3370
烯	-3371
挽	-3372
酿	-3373
藤	-3374
舰	-3375
葛	-3376
诀	-3377
व	-3378
墅	-3379
領	-3380
้	-3381
圖	-3382
忌	-3383
槽	-3384
്	-3385
單	-3386
ト	-3387
や	-3388
蔽	-3389
匠	-3390
滿	-3391
熱	-3392
蝙	-3393
谛	-3394
遊	-3395
崖	-3396
蔓	-3397
僧	-3398
咒	-3399
锤	-3400
岳	-3401
宪	-3402
寨	-3403
則	-3404
岭	-3405
匿	-3406
拘	-3407
嘛	-3408
ย	-3409
亭	-3410
ర	-3411
ش	-3412
臣	-3413
坎	-3414
颇	-3415
婉	-3416
畴	-3417
刮	-3418
ح	-3419
笛	-3420
耕	-3421
阱	-3422
宛	-3423
ج	-3424
鹤	-3425
는	-3426
慷	-3427
丸	-3428
祸	-3429
ు	-3430
報	-3431
幂	-3432
粼	-3433
寡	-3434
杠	-3435
苯	-3436
驳	-3437
抄	-3438
給	-3439
視	-3440
绎	-3441
薇	-3442
窄	-3443
價	-3444
巩	-3445
ц	-3446
禅	-3447
驯	-3448
認	-3449
ê	-3450
న	-3451
σ	-3452
曰	-3453
闯	-3454
瘾	-3455
ì	-3456
鲈	-3457
榨	-3458
✅	-3459
灶	-3460
锥	-3461
優	-3462
羞	-3463
耸	-3464
ש	-3465
奴	-3466
滞	-3467
ん	-3468
μ	-3469
蜗	-3470
準	-3471
胺	-3472
淹	-3473
妖	-3474
爭	-3475
宵	-3476
歷	-3477
掠	-3478
₂	-3479
喘	-3480
躁	-3481
啼	-3482
峦	-3483
吾	-3484
泻	-3485
遣	-3486
熙	-3487
胰	-3488
剖	-3489
際	-3490
纺	-3491
芥	-3492
製	-3493
渍	-3494
晾	-3495
擀	-3496
ท	-3497
柄	-3498
煲	-3499
垢	-3500
稱	-3501
赴	-3502
孝	-3503
捧	-3504
柑	-3505
く	-3506
靴	-3507
ρ	-3508
赐	-3509
骚	-3510
惨	-3511
歡	-3512
沾	-3513
臀	-3514
锡	-3515
钗	-3516
坍	-3517
續	-3518
ら	-3519
約	-3520
娇	-3521
ล	-3522
師	-3523
も	-3524
泣	-3525
險	-3526
き	-3527
姬	-3528
汀	-3529
颂	-3530
渊	-3531
弓	-3532
詞	-3533
構	-3534
冗	-3535
見	-3536
專	-3537
祉	-3538
イ	-3539
皱	-3540
盏	-3541
評	-3542
備	-3543
規	-3544
線	-3545
兮	-3546
萎	-3547
క	-3548
喵	-3549
斷	-3550
減	-3551
ル	-3552
項	-3553
枣	-3554
竖	-3555
ã	-3556
ш	-3557
話	-3558
俊	-3559
書	-3560
ñ	-3561
況	-3562
酯	-3563
撕	-3564
铲	-3565
捡	-3566
נ	-3567
寫	-3568
愚	-3569
呤	-3570
觅	-3571
钞	-3572
ว	-3573
裕	-3574
俩	-3575
爾	-3576
庸	-3577
隧	-3578
沒	-3579
獲	-3580
嘌	-3581
尸	-3582
द	-3583
瑕	-3584
杖	-3585
崽	-3586
惬	-3587
苷	-3588
協	-3589
ک	-3590
屆	-3591
條	-3592
哮	-3593
簇	-3594
挪	-3595
ī	-3596
ন	-3597
囚	-3598
預	-3599
驻	-3600
峭	-3601
鲑	-3602
僵	-3603
呕	-3604
擊	-3605
畜	-3606
翱	-3607
．	-3608
坞	-3609
輕	-3610
兑	-3611
ค	-3612
ల	-3613
簧	-3614
鸥	-3615
酚	-3616
霉	-3617
溜	-3618
そ	-3619
ิ	-3620
熵	-3621
颐	-3622
醫	-3623
極	-3624
谅	-3625
魄	-3626
蜥	-3627
褐	-3628
較	-3629
镁	-3630
霾	-3631
니	-3632
練	-3633
咽	-3634
～	-3635
谚	-3636
辖	-3637
簡	-3638
脖	-3639
芭	-3640
筷	-3641
ส	-3642
葫	-3643
虐	-3644
ด	-3645
凄	-3646
枢	-3647
த	-3648
剔	-3649
颤	-3650
療	-3651
්	-3652
昌	-3653
魏	-3654
ز	-3655
東	-3656
芙	-3657
怜	-3658
酮	-3659
咕	-3660
態	-3661
腕	-3662
渲	-3663
锌	-3664
ক	-3665
よ	-3666
倚	-3667
诵	-3668
厕	-3669
ş	-3670
衔	-3671
馬	-3672
э	-3673
涟	-3674
傅	-3675
門	-3676
亏	-3677
轉	-3678
紅	-3679
κ	-3680
傻	-3681
苔	-3682
熏	-3683
ô	-3684
榴	-3685
炫	-3686
狀	-3687
費	-3688
聲	-3689
η	-3690
茅	-3691
蔚	-3692
沛	-3693
溉	-3694
荧	-3695
雌	-3696
獨	-3697
哎	-3698
逮	-3699
¿	-3700
啶	-3701
廣	-3702
ग	-3703
贩	-3704
轰	-3705
徊	-3706
汰	-3707
終	-3708
â	-3709
ા	-3710
肆	-3711
ю	-3712
記	-3713
辦	-3714
沧	-3715
蹦	-3716
郑	-3717
藝	-3718
０	-3719
隨	-3720
裝	-3721
鸿	-3722
ต	-3723
徙	-3724
莺	-3725
つ	-3726
侯	-3727
하	-3728
泵	-3729
隶	-3730
³	-3731
渺	-3732
趟	-3733
ě	-3734
ज	-3735
徘	-3736
昼	-3737
缆	-3738
袍	-3739
顽	-3740
扼	-3741
θ	-3742
莹	-3743
笋	-3744
嘲	-3745
驼	-3746
歐	-3747
汲	-3748
姨	-3749
沁	-3750
渣	-3751
λ	-3752
의	-3753
য	-3754
挠	-3755
戚	-3756
難	-3757
焕	-3758
袜	-3759
尬	-3760
瞰	-3761
郭	-3762
蘭	-3763
勘	-3764
湘	-3765
에	-3766
１	-3767
劃	-3768
遏	-3769
钦	-3770
戳	-3771
婷	-3772
尴	-3773
だ	-3774
橱	-3775
汐	-3776
ς	-3777
嗡	-3778
甸	-3779
孵	-3780
陨	-3781
嘧	-3782
嘱	-3783
瀚	-3784
琼	-3785
疆	-3786
亨	-3787
ห	-3788
咀	-3789
嫁	-3790
硝	-3791
リ	-3792
侈	-3793
ब	-3794
ะ	-3795
贬	-3796
え	-3797
辽	-3798
尋	-3799
輸	-3800
碟	-3801
ु	-3802
漪	-3803
狄	-3804
嘻	-3805
浑	-3806
蹄	-3807
을	-3808
潘	-3809
頭	-3810
級	-3811
贤	-3812
垠	-3813
梢	-3814
痘	-3815
త	-3816
褪	-3817
î	-3818
်	-3819
疹	-3820
積	-3821
บ	-3822
ア	-3823
≤	-3824
،	-3825
搓	-3826
っ	-3827
ป	-3828
拱	-3829
ত	-3830
្	-3831
š	-3832
炽	-3833
阮	-3834
め	-3835
趁	-3836
乾	-3837
薰	-3838
秉	-3839
陀	-3840
猿	-3841
ி	-3842
邓	-3843
ラ	-3844
庐	-3845
層	-3846
覺	-3847
厄	-3848
冈	-3849
ư	-3850
వ	-3851
濟	-3852
睐	-3853
垒	-3854
羅	-3855
骰	-3856
祷	-3857
ব	-3858
ク	-3859
锯	-3860
β	-3861
υ	-3862
刃	-3863
厢	-3864
戲	-3865
痒	-3866
盃	-3867
خ	-3868
蜴	-3869
க	-3870
।	-3871
梧	-3872
祀	-3873
缭	-3874
焖	-3875
馏	-3876
ф	-3877
啥	-3878
️	-3879
勢	-3880
叮	-3881
圍	-3882
笨	-3883
罢	-3884
畫	-3885
豐	-3886
ǎ	-3887
讀	-3888
嗓	-3889
溫	-3890
ù	-3891
眸	-3892
炙	-3893
葬	-3894
權	-3895
涝	-3896
ு	-3897
漓	-3898
ם	-3899
訊	-3900
宰	-3901
涅	-3902
陕	-3903
ข	-3904
誰	-3905
暇	-3906
颊	-3907
凹	-3908
沈	-3909
庇	-3910
扉	-3911
眾	-3912
皑	-3913
盔	-3914
弛	-3915
張	-3916
ា	-3917
舆	-3918
萤	-3919
瑶	-3920
咱	-3921
獎	-3922
園	-3923
荆	-3924
च	-3925
漱	-3926
č	-3927
焚	-3928
​	-3929
醛	-3930
ट	-3931
劝	-3932
杞	-3933
辱	-3934
粤	-3935
汹	-3936
氟	-3937
య	-3938
犀	-3939
辜	-3940
స	-3941
捏	-3942
馒	-3943
±	-3944
ప	-3945
缅	-3946
飲	-3947
峨	-3948
悖	-3949
郡	-3950
ע	-3951
壓	-3952
異	-3953
腥	-3954
豁	-3955
け	-3956
陡	-3957
แ	-3958
幾	-3959
鸵	-3960
ž	-3961
桐	-3962
ッ	-3963
敛	-3964
慮	-3965
溅	-3966
淮	-3967
團	-3968
弘	-3969
诠	-3970
鞭	-3971
檢	-3972
熄	-3973
匪	-3974
枸	-3975
係	-3976
鳕	-3977
桔	-3978
谍	-3979
趾	-3980
铸	-3981
兆	-3982
豌	-3983
ј	-3984
פ	-3985
舔	-3986
剁	-3987
憧	-3988
ど	-3989
亩	-3990
嘈	-3991
訓	-3992
鳍	-3993
凰	-3994
擁	-3995
換	-3996
焊	-3997
憬	-3998
拢	-3999
崎	-4000
স	-4001
崭	-4002
拦	-4003
ط	-4004
織	-4005
谴	-4006
連	-4007
鼎	-4008
お	-4009
焗	-4010
珀	-4011
藉	-4012
ד	-4013
絮	-4014
羡	-4015
せ	-4016
屉	-4017
蝇	-4018
興	-4019
岂	-4020
碼	-4021
麗	-4022
ै	-4023
タ	-4024
孜	-4025
扳	-4026
诡	-4027
ි	-4028
佼	-4029
潇	-4030
討	-4031
ח	-4032
穗	-4033
複	-4034
顯	-4035
熠	-4036
ק	-4037
仗	-4038
噢	-4039
娅	-4040
營	-4041
를	-4042
妒	-4043
蒲	-4044
霓	-4045
僅	-4046
螃	-4047
ద	-4048
盯	-4049
陽	-4050
骆	-4051
鮮	-4052
坝	-4053
肽	-4054
మ	-4055
ए	-4056
න	-4057
俑	-4058
袤	-4059
ص	-4060
勝	-4061
卿	-4062
敷	-4063
奧	-4064
皎	-4065
阀	-4066
	-4067
婪	-4068
逾	-4069
阈	-4070
疵	-4071
로	-4072
鲤	-4073
晤	-4074
锂	-4075
哨	-4076
茁	-4077
華	-4078
辟	-4079
窟	-4080
惟	-4081
涎	-4082
遠	-4083
２	-4084
篝	-4085
屠	-4086
蛤	-4087
朽	-4088
栩	-4089
蘸	-4090
ば	-4091
한	-4092
眺	-4093
證	-4094
攝	-4095
沼	-4096
栗	-4097
僻	-4098
श	-4099
窍	-4100
圭	-4101
蠢	-4102
ે	-4103
鳃	-4104
ය	-4105
ន	-4106
浊	-4107
冯	-4108
拐	-4109
－	-4110
魁	-4111
ર	-4112
職	-4113
堤	-4114
肘	-4115
蜀	-4116
蔡	-4117
ə	-4118
ί	-4119
捣	-4120
嗎	-4121
潭	-4122
骂	-4123
桩	-4124
가	-4125
ക	-4126
萃	-4127
어	-4128
躯	-4129
ế	-4130
侍	-4131
瞻	-4132
號	-4133
ț	-4134
矢	-4135
鸢	-4136
負	-4137
醬	-4138
谬	-4139
钳	-4140
ল	-4141
愧	-4142
聽	-4143
ப	-4144
斩	-4145
槛	-4146
ạ	-4147
坷	-4148
絡	-4149
袅	-4150
咏	-4151
恍	-4152
狡	-4153
卦	-4154
ǐ	-4155
灼	-4156
吕	-4157
靈	-4158
─	-4159
痰	-4160
養	-4161
蜓	-4162
蜻	-4163
প	-4164
離	-4165
지	-4166
ম	-4167
築	-4168
嫉	-4169
涕	-4170
茏	-4171
詳	-4172
昭	-4173
ව	-4174
ി	-4175
麵	-4176
ใ	-4177
徵	-4178
灸	-4179
範	-4180
扯	-4181
邊	-4182
К	-4183
剃	-4184
牡	-4185
垄	-4186
翡	-4187
プ	-4188
哟	-4189
寥	-4190
蚝	-4191
ਾ	-4192
棱	-4193
ා	-4194
聞	-4195
å	-4196
幔	-4197
酰	-4198
惹	-4199
ન	-4200
્	-4201
フ	-4202
😊	-4203
С	-4204
樹	-4205
遛	-4206
乖	-4207
嗜	-4208
洽	-4209
匈	-4210
菩	-4211
γ	-4212
哗	-4213
ى	-4214
・	-4215
狠	-4216
ł	-4217
噜	-4218
萦	-4219
ර	-4220
δ	-4221
彭	-4222
秤	-4223
粽	-4224
栓	-4225
矫	-4226
ē	-4227
繼	-4228
綠	-4229
芜	-4230
จ	-4231
妃	-4232
ס	-4233
П	-4234
掀	-4235
अ	-4236
購	-4237
朦	-4238
ू	-4239
猕	-4240
凳	-4241
旬	-4242
卤	-4243
ǒ	-4244
כ	-4245
課	-4246
攒	-4247
凿	-4248
夢	-4249
澎	-4250
釋	-4251
宕	-4252
ட	-4253
シ	-4254
ド	-4255
睹	-4256
陋	-4257
鳗	-4258
ý	-4259
乞	-4260
粪	-4261
肋	-4262
ர	-4263
軟	-4264
ğ	-4265
唾	-4266
娟	-4267
矣	-4268
蕃	-4269
사	-4270
徉	-4271
徜	-4272
ன	-4273
紊	-4274
吠	-4275
嘶	-4276
瞒	-4277
ò	-4278
ක	-4279
ื	-4280
嚏	-4281
澜	-4282
眷	-4283
ന	-4284
ช	-4285
テ	-4286
冤	-4287
帧	-4288
魚	-4289
荔	-4290
蜿	-4291
裳	-4292
稽	-4293
穹	-4294
責	-4295
篱	-4296
蜒	-4297
靡	-4298
ō	-4299
漩	-4300
胧	-4301
採	-4302
은	-4303
湃	-4304
謝	-4305
轼	-4306
彷	-4307
ุ	-4308
劇	-4309
睫	-4310
羁	-4311
靶	-4312
ா	-4313
睦	-4314
島	-4315
詩	-4316
髦	-4317
檐	-4318
磊	-4319
រ	-4320
烩	-4321
ध	-4322
菱	-4323
ά	-4324
雞	-4325
娑	-4326
紹	-4327
編	-4328
迄	-4329
ộ	-4330
渚	-4331
蠕	-4332
屬	-4333
竿	-4334
舶	-4335
镶	-4336
炊	-4337
疡	-4338
Δ	-4339
蚕	-4340
訴	-4341
喇	-4342
飛	-4343
ג	-4344
妄	-4345
鬆	-4346
시	-4347
撇	-4348
翘	-4349
์	-4350
亟	-4351
墟	-4352
芡	-4353
遂	-4354
雜	-4355
慵	-4356
阪	-4357
劍	-4358
癫	-4359
靜	-4360
고	-4361
紀	-4362
ち	-4363
俏	-4364
卻	-4365
ș	-4366
ロ	-4367
勉	-4368
巍	-4369
錦	-4370
霄	-4371
−	-4372
绷	-4373
斧	-4374
臺	-4375
帜	-4376
納	-4377
咚	-4378
镑	-4379
ไ	-4380
瞳	-4381
筐	-4382
喙	-4383
蛮	-4384
裸	-4385
ט	-4386
眩	-4387
猾	-4388
¬	-4389
湯	-4390
贞	-4391
ذ	-4392
レ	-4393
서	-4394
抉	-4395
敗	-4396
ό	-4397
枉	-4398
ම	-4399
胚	-4400
إ	-4401
嚴	-4402
卒	-4403
睿	-4404
萬	-4405
喀	-4406
砸	-4407
跤	-4408
आ	-4409
攘	-4410
穩	-4411
苛	-4412
း	-4413
驟	-4414
襟	-4415
诅	-4416
琪	-4417
藥	-4418
喳	-4419
趴	-4420
涣	-4421
ু	-4422
執	-4423
轩	-4424
睁	-4425
ប	-4426
館	-4427
監	-4428
阑	-4429
麸	-4430
咆	-4431
寐	-4432
습	-4433
А	-4434
ण	-4435
搁	-4436
酌	-4437
庫	-4438
蕨	-4439
弈	-4440
瞪	-4441
พ	-4442
褶	-4443
骸	-4444
蘇	-4445
়	-4446
冕	-4447
ස	-4448
勋	-4449
擔	-4450
悍	-4451
坤	-4452
怅	-4453
競	-4454
洼	-4455
浒	-4456
ω	-4457
щ	-4458
娥	-4459
腦	-4460
葉	-4461
親	-4462
須	-4463
溺	-4464
羚	-4465
銷	-4466
饵	-4467
琅	-4468
盡	-4469
窒	-4470
荟	-4471
리	-4472
수	-4473
ம	-4474
撩	-4475
堅	-4476
ა	-4477
詢	-4478
钛	-4479
绅	-4480
డ	-4481
デ	-4482
漸	-4483
ู	-4484
買	-4485
있	-4486
ත	-4487
叭	-4488
啾	-4489
悸	-4490
滔	-4491
傷	-4492
塊	-4493
誤	-4494
復	-4495
聋	-4496
ു	-4497
ジ	-4498
吒	-4499
痫	-4500
గ	-4501
ာ	-4502
喃	-4503
缎	-4504
鬓	-4505
勵	-4506
ể	-4507
ố	-4508
わ	-4509
پ	-4510
ో	-4511
ム	-4512
顷	-4513
ड	-4514
ř	-4515
姚	-4516
拙	-4517
雙	-4518
鹏	-4519
３	-4520
ક	-4521
拇	-4522
緊	-4523
饶	-4524
‍	-4525
錯	-4526
ក	-4527
驴	-4528
俚	-4529
閱	-4530
朔	-4531
跹	-4532
В	-4533
祇	-4534
鐘	-4535
洱	-4536
馀	-4537
ే	-4538
偎	-4539
烃	-4540
緒	-4541
颅	-4542
گ	-4543
耦	-4544
ض	-4545
堕	-4546
擬	-4547
थ	-4548
ą	-4549
蔷	-4550
吏	-4551
掏	-4552
恬	-4553
疚	-4554
鹽	-4555
籁	-4556
錄	-4557
ę	-4558
昵	-4559
나	-4560
奕	-4561
釉	-4562
逍	-4563
ث	-4564
衛	-4565
ந	-4566
匮	-4567
鹊	-4568
ئ	-4569
グ	-4570
倫	-4571
５	-4572
吼	-4573
غ	-4574
斋	-4575
ത	-4576
簿	-4577
చ	-4578
ả	-4579
栅	-4580
ή	-4581
인	-4582
정	-4583
槟	-4584
蝎	-4585
라	-4586
일	-4587
έ	-4588
দ	-4589
損	-4590
韭	-4591
瘫	-4592
農	-4593
拧	-4594
黃	-4595
仄	-4596
榈	-4597
礎	-4598
芪	-4599
疮	-4600
踝	-4601
က	-4602
①	-4603
ી	-4604
呐	-4605
羟	-4606
绊	-4607
黯	-4608
珑	-4609
耻	-4610
藕	-4611
기	-4612
વ	-4613
哩	-4614
棚	-4615
스	-4616
琢	-4617
驚	-4618
麟	-4619
龍	-4620
ן	-4621
□	-4622
琉	-4623
茉	-4624
镍	-4625
ი	-4626
苑	-4627
鱿	-4628
萋	-4629
भ	-4630
②	-4631
凛	-4632
ാ	-4633
メ	-4634
樓	-4635
£	-4636
コ	-4637
捆	-4638
蕊	-4639
해	-4640
ট	-4641
呜	-4642
甩	-4643
蔥	-4644
靖	-4645
岖	-4646
窥	-4647
臨	-4648
ట	-4649
稼	-4650
乍	-4651
喔	-4652
恳	-4653
嘟	-4654
骏	-4655
碘	-4656
雯	-4657
ấ	-4658
唉	-4659
鍋	-4660
ੀ	-4661
廳	-4662
צ	-4663
谔	-4664
酋	-4665
颌	-4666
驭	-4667
ủ	-4668
缪	-4669
요	-4670
வ	-4671
็	-4672
汝	-4673
绞	-4674
徨	-4675
怯	-4676
鍵	-4677
ை	-4678
哉	-4679
孢	-4680
カ	-4681
冶	-4682
沌	-4683
전	-4684
হ	-4685
訪	-4686
陳	-4687
バ	-4688
仆	-4689
暹	-4690
財	-4691
≥	-4692
薦	-4693
逅	-4694
ệ	-4695
邂	-4696
ў	-4697
ု	-4698
琶	-4699
悼	-4700
대	-4701
ਰ	-4702
യ	-4703
蜊	-4704
鹃	-4705
õ	-4706
桨	-4707
∠	-4708
唧	-4709
咧	-4710
沦	-4711
柬	-4712
缮	-4713
９	-4714
侏	-4715
俭	-4716
妍	-4717
嫦	-4718
瓢	-4719
ေ	-4720
₃	-4721
鹳	-4722
寶	-4723
屡	-4724
皿	-4725
ស	-4726
倩	-4727
苒	-4728
ख	-4729
キ	-4730
咯	-4731
제	-4732
眨	-4733
瞄	-4734
โ	-4735
ត	-4736
으	-4737
蹴	-4738
み	-4739
吱	-4740
繫	-4741
荏	-4742
遐	-4743
顧	-4744
उ	-4745
萼	-4746
衝	-4747
ਦ	-4748
揮	-4749
銀	-4750
叽	-4751
陸	-4752
મ	-4753
钝	-4754
🌟	-4755
ல	-4756
焉	-4757
稣	-4758
ū	-4759
サ	-4760
涧	-4761
鹭	-4762
ો	-4763
嘗	-4764
針	-4765
ष	-4766
镀	-4767
橇	-4768
燒	-4769
ម	-4770
埔	-4771
汞	-4772
贿	-4773
इ	-4774
龈	-4775
Б	-4776
獻	-4777
그	-4778
賞	-4779
贮	-4780
飾	-4781
О	-4782
ਿ	-4783
哼	-4784
秃	-4785
棠	-4786
煦	-4787
谭	-4788
祛	-4789
跪	-4790
哒	-4791
瘙	-4792
ø	-4793
∧	-4794
気	-4795
炬	-4796
蛾	-4797
ợ	-4798
亢	-4799
诏	-4800
雲	-4801
¡	-4802
崔	-4803
窦	-4804
★	-4805
禮	-4806
雏	-4807
萍	-4808
迦	-4809
彦	-4810
아	-4811
沪	-4812
聖	-4813
４	-4814
寝	-4815
도	-4816
ờ	-4817
闸	-4818
ര	-4819
ល	-4820
噩	-4821
晦	-4822
蚓	-4823
惆	-4824
袁	-4825
飙	-4826
垦	-4827
憶	-4828
擴	-4829
侮	-4830
陣	-4831
頻	-4832
주	-4833
Н	-4834
ු	-4835
嘎	-4836
砌	-4837
脈	-4838
诫	-4839
溝	-4840
纶	-4841
ე	-4842
啃	-4843
曙	-4844
蔻	-4845
ਸ	-4846
સ	-4847
ද	-4848
漢	-4849
箔	-4850
薩	-4851
铛	-4852
फ	-4853
∨	-4854
兒	-4855
佑	-4856
屯	-4857
铂	-4858
刨	-4859
閒	-4860
マ	-4861
彤	-4862
跋	-4863
诣	-4864
ង	-4865
箫	-4866
ં	-4867
ய	-4868
湍	-4869
罹	-4870
浣	-4871
腮	-4872
ત	-4873
樽	-4874
绰	-4875
芋	-4876
雹	-4877
睾	-4878
胱	-4879
ớ	-4880
儲	-4881
琵	-4882
蚯	-4883
এ	-4884
奎	-4885
淅	-4886
耽	-4887
蜷	-4888
자	-4889
／	-4890
啟	-4891
昧	-4892
濃	-4893
亥	-4894
蟒	-4895
漉	-4896
稚	-4897
ো	-4898
槃	-4899
砧	-4900
関	-4901
ถ	-4902
呦	-4903
烙	-4904
阂	-4905
ү	-4906
ိ	-4907
绮	-4908
آ	-4909
徑	-4910
週	-4911
М	-4912
ਕ	-4913
仕	-4914
勻	-4915
恕	-4916
缔	-4917
χ	-4918
悴	-4919
蔗	-4920
頁	-4921
兜	-4922
岚	-4923
辗	-4924
φ	-4925
姥	-4926
娶	-4927
迢	-4928
ල	-4929
『	-4930
啮	-4931
沓	-4932
瘟	-4933
蓋	-4934
鬥	-4935
碾	-4936
ੇ	-4937
甄	-4938
ำ	-4939
芸	-4940
災	-4941
痪	-4942
പ	-4943
ậ	-4944
』	-4945
憔	-4946
掺	-4947
蒋	-4948
阙	-4949
문	-4950
ਨ	-4951
ਹ	-4952
褒	-4953
ਤ	-4954
ပ	-4955
牠	-4956
虛	-4957
馍	-4958
③	-4959
ェ	-4960
ブ	-4961
俐	-4962
哄	-4963
啄	-4964
眶	-4965
絲	-4966
ウ	-4967
冽	-4968
熨	-4969
ז	-4970
ề	-4971
„	-4972
ニ	-4973
瞎	-4974
飪	-4975
宮	-4976
ˈ	-4977
惘	-4978
歪	-4979
禹	-4980
講	-4981
锰	-4982
镯	-4983
畸	-4984
»	-4985
幢	-4986
榭	-4987
鸳	-4988
Д	-4989
袂	-4990
闺	-4991
‌	-4992
診	-4993
ż	-4994
ึ	-4995
怠	-4996
⁻	-4997
拣	-4998
అ	-4999
憩	-5000
榛	-5001
殷	-5002
潔	-5003
茜	-5004
貂	-5005
ß	-5006
戊	-5007
敵	-5008
ச	-5009
ற	-5010
荤	-5011
█	-5012
垮	-5013
緩	-5014
드	-5015
涮	-5016
潛	-5017
纫	-5018
ǔ	-5019
坟	-5020
淳	-5021
禾	-5022
酗	-5023
麥	-5024
પ	-5025
屎	-5026
慣	-5027
憎	-5028
檀	-5029
鐵	-5030
용	-5031
ɪ	-5032
伶	-5033
垩	-5034
涓	-5035
ị	-5036
煽	-5037
瞧	-5038
脐	-5039
繪	-5040
苟	-5041
诲	-5042
鎮	-5043
嘹	-5044
帷	-5045
虔	-5046
颓	-5047
জ	-5048
િ	-5049
挨	-5050
譯	-5051
«	-5052
ィ	-5053
楷	-5054
疤	-5055
ય	-5056
ご	-5057
妊	-5058
簸	-5059
靓	-5060
ศ	-5061
補	-5062
８	-5063
侃	-5064
磺	-5065
螂	-5066
冉	-5067
揣	-5068
訂	-5069
譜	-5070
것	-5071
적	-5072
ύ	-5073
ප	-5074
エ	-5075
榻	-5076
禄	-5077
藓	-5078
镖	-5079
飯	-5080
년	-5081
မ	-5082
娠	-5083
歲	-5084
絕	-5085
嗟	-5086
娴	-5087
羹	-5088
锣	-5089
တ	-5090
旭	-5091
砺	-5092
隱	-5093
শ	-5094
င	-5095
兀	-5096
淺	-5097
尉	-5098
顏	-5099
娩	-5100
屁	-5101
疟	-5102
藍	-5103
貢	-5104
遺	-5105
闽	-5106
頓	-5107
オ	-5108
挞	-5109
糠	-5110
貴	-5111
보	-5112
Ф	-5113
談	-5114
Р	-5115
禧	-5116
羔	-5117
苇	-5118
呱	-5119
奂	-5120
鸯	-5121
ً	-5122
✨	-5123
殴	-5124
滕	-5125
趨	-5126
锚	-5127
佈	-5128
隋	-5129
唑	-5130
捍	-5131
腑	-5132
虞	-5133
Σ	-5134
躬	-5135
雍	-5136
飒	-5137
ọ	-5138
僚	-5139
厥	-5140
淑	-5141
颚	-5142
壑	-5143
ේ	-5144
瘀	-5145
衅	-5146
隍	-5147
장	-5148
ズ	-5149
毗	-5150
祠	-5151
貨	-5152
국	-5153
합	-5154
舵	-5155
ơ	-5156
∩	-5157
∫	-5158
覽	-5159
霆	-5160
면	-5161
檔	-5162
蝌	-5163
麒	-5164
蹬	-5165
順	-5166
筆	-5167
റ	-5168
ュ	-5169
輯	-5170
ъ	-5171
ầ	-5172
æ	-5173
သ	-5174
餅	-5175
載	-5176
韶	-5177
額	-5178
６	-5179
গ	-5180
墩	-5181
懷	-5182
苞	-5183
譬	-5184
戦	-5185
殺	-5186
肇	-5187
蛹	-5188
願	-5189
│	-5190
佬	-5191
俘	-5192
세	-5193
烽	-5194
É	-5195
贱	-5196
階	-5197
ട	-5198
侬	-5199
礴	-5200
🎉	-5201
ీ	-5202
ณ	-5203
壞	-5204
瞭	-5205
蛀	-5206
摒	-5207
績	-5208
懦	-5209
赘	-5210
伎	-5211
憨	-5212
揽	-5213
歸	-5214
蟀	-5215
贏	-5216
ć	-5217
Т	-5218
盤	-5219
矗	-5220
蚪	-5221
ś	-5222
丞	-5223
蟋	-5224
袒	-5225
Л	-5226
啁	-5227
懊	-5228
❌	-5229
笙	-5230
薏	-5231
●	-5232
迥	-5233
အ	-5234
佔	-5235
庵	-5236
脯	-5237
蔼	-5238
釜	-5239
හ	-5240
莽	-5241
韓	-5242
鲫	-5243
べ	-5244
渝	-5245
丫	-5246
盹	-5247
鞠	-5248
લ	-5249
帚	-5250
과	-5251
７	-5252
ů	-5253
パ	-5254
惡	-5255
雖	-5256
공	-5257
ứ	-5258
ビ	-5259
ャ	-5260
毋	-5261
û	-5262
じ	-5263
淫	-5264
입	-5265
ள	-5266
�	-5267
់	-5268
伫	-5269
屹	-5270
Г	-5271
啪	-5272
樟	-5273
瘠	-5274
羲	-5275
ώ	-5276
セ	-5277
綜	-5278
莴	-5279
鬃	-5280
ซ	-5281
′	-5282
窮	-5283
箍	-5284
肱	-5285
觸	-5286
鳥	-5287
媛	-5288
棄	-5289
籃	-5290
ョ	-5291
奸	-5292
瑙	-5293
蒿	-5294
औ	-5295
⁺	-5296
嵩	-5297
扒	-5298
烬	-5299
鄂	-5300
Е	-5301
ネ	-5302
嚎	-5303
羧	-5304
倘	-5305
呃	-5306
変	-5307
榮	-5308
殆	-5309
缥	-5310
咎	-5311
؟	-5312
চ	-5313
冀	-5314
婀	-5315
ణ	-5316
ს	-5317
勞	-5318
啰	-5319
戟	-5320
₄	-5321
缉	-5322
＂	-5323
ő	-5324
祢	-5325
荀	-5326
铬	-5327
트	-5328
ග	-5329
淤	-5330
＜	-5331
ء	-5332
ụ	-5333
庚	-5334
潦	-5335
게	-5336
ө	-5337
அ	-5338
စ	-5339
嘘	-5340
缱	-5341
咔	-5342
粱	-5343
腳	-5344
舅	-5345
谙	-5346
魯	-5347
ী	-5348
チ	-5349
璧	-5350
硒	-5351
蚤	-5352
蟾	-5353
ນ	-5354
侨	-5355
哆	-5356
審	-5357
慑	-5358
榆	-5359
皓	-5360
貓	-5361
違	-5362
െ	-5363
嗦	-5364
斟	-5365
缈	-5366
ই	-5367
സ	-5368
④	-5369
眯	-5370
諾	-5371
馁	-5372
涸	-5373
绻	-5374
陰	-5375
倔	-5376
劈	-5377
婵	-5378
虏	-5379
铀	-5380
들	-5381
വ	-5382
卯	-5383
嗝	-5384
愫	-5385
劑	-5386
攪	-5387
炯	-5388
琥	-5389
膊	-5390
ം	-5391
€	-5392
渤	-5393
燉	-5394
腩	-5395
诙	-5396
월	-5397
½	-5398
န	-5399
ナ	-5400
羌	-5401
膚	-5402
觑	-5403
奪	-5404
ਂ	-5405
媲	-5406
汕	-5407
脓	-5408
萊	-5409
靛	-5410
＞	-5411
ី	-5412
嫣	-5413
楂	-5414
暝	-5415
毂	-5416
锄	-5417
와	-5418
ภ	-5419
対	-5420
紛	-5421
螨	-5422
襄	-5423
ြ	-5424
苣	-5425
豬	-5426
閃	-5427
미	-5428
ょ	-5429
燈	-5430
窑	-5431
誠	-5432
鄙	-5433
麓	-5434
অ	-5435
જ	-5436
窜	-5437
萱	-5438
ෙ	-5439
彝	-5440
蹭	-5441
駛	-5442
ė	-5443
铵	-5444
되	-5445
ベ	-5446
梓	-5447
蟑	-5448
۱	-5449
ំ	-5450
拽	-5451
痹	-5452
ë	-5453
ų	-5454
ដ	-5455
យ	-5456
奮	-5457
懵	-5458
晗	-5459
藜	-5460
濕	-5461
瑪	-5462
蘋	-5463
ポ	-5464
叨	-5465
欖	-5466
呗	-5467
孪	-5468
札	-5469
臉	-5470
丐	-5471
嶂	-5472
镭	-5473
ព	-5474
侄	-5475
儀	-5476
発	-5477
邸	-5478
隻	-5479
齡	-5480
구	-5481
상	-5482
И	-5483
ई	-5484
আ	-5485
ষ	-5486
∶	-5487
煙	-5488
霭	-5489
妩	-5490
岐	-5491
昊	-5492
訳	-5493
ฟ	-5494
嚐	-5495
惭	-5496
耿	-5497
ੱ	-5498
့	-5499
რ	-5500
悯	-5501
猬	-5502
າ	-5503
ရ	-5504
℉	-5505
匣	-5506
爹	-5507
磋	-5508
驿	-5509
ී	-5510
偕	-5511
泞	-5512
紙	-5513
縮	-5514
説	-5515
輪	-5516
隘	-5517
부	-5518
ษ	-5519
ự	-5520
煞	-5521
簽	-5522
胳	-5523
ਲ	-5524
篆	-5525
舀	-5526
鞍	-5527
₁	-5528
∂	-5529
庶	-5530
艮	-5531
豉	-5532
ല	-5533
ុ	-5534
ダ	-5535
狒	-5536
诃	-5537
陛	-5538
伺	-5539
惶	-5540
町	-5541
ছ	-5542
ទ	-5543
嘀	-5544
寅	-5545
慶	-5546
ੋ	-5547
బ	-5548
媳	-5549
寇	-5550
惦	-5551
汶	-5552
溴	-5553
濡	-5554
耘	-5555
蜕	-5556
頂	-5557
ї	-5558
娓	-5559
笆	-5560
శ	-5561
糜	-5562
縣	-5563
ఉ	-5564
ැ	-5565
彬	-5566
谤	-5567
貝	-5568
赃	-5569
遁	-5570
髋	-5571
🧪	-5572
മ	-5573
ើ	-5574
拷	-5575
枷	-5576
砾	-5577
贻	-5578
¹	-5579
ટ	-5580
ට	-5581
潢	-5582
脍	-5583
辙	-5584
镂	-5585
餘	-5586
駕	-5587
থ	-5588
憋	-5589
簪	-5590
З	-5591
ở	-5592
❤	-5593
岔	-5594
戎	-5595
笺	-5596
饕	-5597
骁	-5598
ែ	-5599
ặ	-5600
ピ	-5601
橋	-5602
硼	-5603
ظ	-5604
壯	-5605
竣	-5606
蟆	-5607
鹫	-5608
ਵ	-5609
ુ	-5610
圃	-5611
宦	-5612
忒	-5613
扛	-5614
撮	-5615
觞	-5616
چ	-5617
々	-5618
牟	-5619
鸾	-5620
ధ	-5621
ツ	-5622
纖	-5623
蹤	-5624
輛	-5625
骇	-5626
జ	-5627
咋	-5628
彈	-5629
烏	-5630
牆	-5631
轭	-5632
邑	-5633
龋	-5634
여	-5635
Ω	-5636
戛	-5637
毡	-5638
鸠	-5639
ミ	-5640
脅	-5641
蜇	-5642
ผ	-5643
Ⅱ	-5644
氩	-5645
镰	-5646
Đ	-5647
ॉ	-5648
ై	-5649
ှ	-5650
მ	-5651
峥	-5652
遞	-5653
娛	-5654
簌	-5655
蛎	-5656
ិ	-5657
叩	-5658
赦	-5659
霏	-5660
오	-5661
ო	-5662
囱	-5663
歹	-5664
踐	-5665
钴	-5666
අ	-5667
ữ	-5668
妾	-5669
廢	-5670
滅	-5671
滇	-5672
명	-5673
ך	-5674
េ	-5675
圓	-5676
讳	-5677
迴	-5678
위	-5679
脫	-5680
臘	-5681
茴	-5682
霖	-5683
馥	-5684
만	-5685
ধ	-5686
価	-5687
沽	-5688
缜	-5689
터	-5690
ａ	-5691
ｅ	-5692
У	-5693
វ	-5694
尧	-5695
涼	-5696
猶	-5697
閉	-5698
ਮ	-5699
モ	-5700
膛	-5701
茧	-5702
러	-5703
ভ	-5704
ਆ	-5705
ਪ	-5706
ె	-5707
ね	-5708
幹	-5709
骋	-5710
ং	-5711
尹	-5712
赂	-5713
吝	-5714
斌	-5715
琏	-5716
қ	-5717
蝗	-5718
轧	-5719
鏡	-5720
饋	-5721
🚀	-5722
ਜ	-5723
ੰ	-5724
嗒	-5725
皙	-5726
苓	-5727
嗣	-5728
堰	-5729
惚	-5730
荼	-5731
蚌	-5732
錢	-5733
𝒜	-5734
ড	-5735
晏	-5736
楔	-5737
楠	-5738
祁	-5739
紐	-5740
襲	-5741
壽	-5742
笠	-5743
迸	-5744
동	-5745
🧠	-5746
粟	-5747
臟	-5748
舊	-5749
饨	-5750
馄	-5751
髻	-5752
ခ	-5753
≠	-5754
秆	-5755
­	-5756
ျ	-5757
実	-5758
绯	-5759
蘿	-5760
豺	-5761
び	-5762
囧	-5763
岑	-5764
恆	-5765
拎	-5766
蜈	-5767
ជ	-5768
匕	-5769
唠	-5770
瞥	-5771
藩	-5772
蝦	-5773
裘	-5774
诛	-5775
轶	-5776
逞	-5777
∈	-5778
忱	-5779
愣	-5780
犷	-5781
純	-5782
铆	-5783
伝	-5784
砚	-5785
袄	-5786
钨	-5787
개	-5788
화	-5789
छ	-5790
寧	-5791
彙	-5792
暧	-5793
砥	-5794
礦	-5795
糍	-5796
裴	-5797
赡	-5798
钧	-5799
驹	-5800
鹂	-5801
ё	-5802
អ	-5803
├	-5804
幣	-5805
恣	-5806
憂	-5807
诽	-5808
辍	-5809
할	-5810
ూ	-5811
槐	-5812
淙	-5813
辫	-5814
醚	-5815
진	-5816
ண	-5817
熹	-5818
鑫	-5819
우	-5820
घ	-5821
़	-5822
痊	-5823
绛	-5824
賴	-5825
锵	-5826
중	-5827
ธ	-5828
ွ	-5829
∑	-5830
亂	-5831
戮	-5832
搐	-5833
渥	-5834
灘	-5835
笃	-5836
餚	-5837
搖	-5838
茱	-5839
ｉ	-5840
ː	-5841
₹	-5842
∀	-5843
咿	-5844
毙	-5845
芷	-5846
貼	-5847
貿	-5848
鞘	-5849
鼹	-5850
ച	-5851
捂	-5852
棺	-5853
疱	-5854
麋	-5855
ே	-5856
ろ	-5857
厮	-5858
垣	-5859
怦	-5860
磕	-5861
ザ	-5862
兢	-5863
挎	-5864
璋	-5865
艦	-5866
輔	-5867
邱	-5868
＝	-5869
ច	-5870
坂	-5871
榫	-5872
禀	-5873
腸	-5874
儘	-5875
劉	-5876
恙	-5877
捲	-5878
臼	-5879
饯	-5880
었	-5881
ლ	-5882
咦	-5883
滟	-5884
癖	-5885
́	-5886
ও	-5887
ெ	-5888
ケ	-5889
値	-5890
剛	-5891
擒	-5892
桓	-5893
渭	-5894
筏	-5895
芫	-5896
誌	-5897
酣	-5898
黔	-5899
ｏ	-5900
ோ	-5901
爲	-5902
犁	-5903
琦	-5904
瞌	-5905
稅	-5906
경	-5907
ң	-5908
ফ	-5909
ồ	-5910
劾	-5911
寬	-5912
氤	-5913
蚜	-5914
掬	-5915
撬	-5916
蔑	-5917
褂	-5918
邵	-5919
안	-5920
ې	-5921
ਣ	-5922
ნ	-5923
楽	-5924
韻	-5925
ｎ	-5926
👍	-5927
Э	-5928
嚷	-5929
Π	-5930
ソ	-5931
捻	-5932
荽	-5933
遨	-5934
성	-5935
ণ	-5936
匡	-5937
氰	-5938
跶	-5939
闵	-5940
隼	-5941
ગ	-5942
ည	-5943
ắ	-5944
挟	-5945
蜍	-5946
阜	-5947
비	-5948
영	-5949
ổ	-5950
む	-5951
唔	-5952
喽	-5953
氲	-5954
＋	-5955
શ	-5956
ള	-5957
嚓	-5958
帳	-5959
忡	-5960
腱	-5961
賣	-5962
隅	-5963
ਚ	-5964
泸	-5965
鬣	-5966
려	-5967
번	-5968
१	-5969
咫	-5970
廠	-5971
茗	-5972
蟠	-5973
裨	-5974
까	-5975
খ	-5976
ੁ	-5977
இ	-5978
ോ	-5979
ừ	-5980
✔	-5981
戍	-5982
泠	-5983
玺	-5984
肮	-5985
腋	-5986
膺	-5987
跡	-5988
គ	-5989
嗷	-5990
暢	-5991
曜	-5992
獒	-5993
ξ	-5994
∞	-5995
ワ	-5996
抨	-5997
秸	-5998
裏	-5999
跎	-6000
黨	-6001
弋	-6002
淨	-6003
籤	-6004
茹	-6005
蛰	-6006
陇	-6007
＃	-6008
壹	-6009
忏	-6010
蔔	-6011
鄉	-6012
鳴	-6013
ठ	-6014
છ	-6015
≡	-6016
姊	-6017
戀	-6018
拮	-6019
菁	-6020
譽	-6021
데	-6022
併	-6023
煉	-6024
痞	-6025
纂	-6026
绢	-6027
臃	-6028
확	-6029
১	-6030
寵	-6031
擾	-6032
樊	-6033
爻	-6034
痤	-6035
芍	-6036
褥	-6037
蹉	-6038
鈴	-6039
신	-6040
원	-6041
ौ	-6042
လ	-6043
ណ	-6044
恺	-6045
檸	-6046
狙	-6047
虱	-6048
鳅	-6049
Я	-6050
ણ	-6051
ങ	-6052
ດ	-6053
დ	-6054
唬	-6055
惋	-6056
沖	-6057
秧	-6058
谟	-6059
마	-6060
유	-6061
표	-6062
ń	-6063
њ	-6064
ొ	-6065
ണ	-6066
坯	-6067
旌	-6068
秽	-6069
舜	-6070
ូ	-6071
搂	-6072
桦	-6073
様	-6074
汩	-6075
蓑	-6076
薑	-6077
讚	-6078
۰	-6079
આ	-6080
吡	-6081
荞	-6082
霁	-6083
역	-6084
ｔ	-6085
🌹	-6086
📌	-6087
ृ	-6088
ກ	-6089
ℬ	-6090
岱	-6091
揚	-6092
砰	-6093
跷	-6094
酝	-6095
騎	-6096
鳟	-6097
소	-6098
프	-6099
ვ	-6100
啬	-6101
孰	-6102
峪	-6103
氖	-6104
臆	-6105
葩	-6106
체	-6107
俠	-6108
奘	-6109
岌	-6110
恪	-6111
榕	-6112
沂	-6113
蟲	-6114
酞	-6115
鳖	-6116
Ч	-6117
仞	-6118
搔	-6119
殇	-6120
潤	-6121
澹	-6122
盧	-6123
誼	-6124
铠	-6125
결	-6126
દ	-6127
බ	-6128
ガ	-6129
呛	-6130
嘞	-6131
荚	-6132
উ	-6133
ោ	-6134
Ⅰ	-6135
傑	-6136
弩	-6137
悅	-6138
磐	-6139
